{"<|endoftext|>":0,"<|pad|>":1,"<|unk|>":2,"<|system|>":3,"<|user|>":4,"<|assistant|>":5,"<|end_turn|>":6,"<|lang_id|>":7,"<|id|>":8,"<|en|>":9,"<|code|>":10,"<|bos|>":11,"<|eos|>":12,"<|sep|>":13,"!":14,"\"":15,"#":16,"$":17,"%":18,"&":19,"'":20,"(":21,")":22,"*":23,"+":24,",":25,"-":26,".":27,"/":28,"0":29,"1":30,"2":31,"3":32,"4":33,"5":34,"6":35,"7":36,"8":37,"9":38,":":39,";":40,"<":41,"=":42,">":43,"?":44,"@":45,"A":46,"B":47,"C":48,"D":49,"E":50,"F":51,"G":52,"H":53,"I":54,"J":55,"K":56,"L":57,"M":58,"N":59,"O":60,"P":61,"Q":62,"R":63,"S":64,"T":65,"U":66,"V":67,"W":68,"X":69,"Y":70,"Z":71,"[":72,"\\":73,"]":74,"^":75,"_":76,"`":77,"a":78,"b":79,"c":80,"d":81,"e":82,"f":83,"g":84,"h":85,"i":86,"j":87,"k":88,"l":89,"m":90,"n":91,"o":92,"p":93,"q":94,"r":95,"s":96,"t":97,"u":98,"v":99,"w":100,"x":101,"y":102,"z":103,"{":104,"|":105,"}":106,"~":107,"¡":108,"¢":109,"£":110,"¤":111,"¥":112,"¦":113,"§":114,"¨":115,"©":116,"ª":117,"«":118,"¬":119,"®":120,"¯":121,"°":122,"±":123,"²":124,"³":125,"´":126,"µ":127,"¶":128,"·":129,"¸":130,"¹":131,"º":132,"»":133,"¼":134,"½":135,"¾":136,"¿":137,"À":138,"Á":139,"Â":140,"Ã":141,"Ä":142,"Å":143,"Æ":144,"Ç":145,"È":146,"É":147,"Ê":148,"Ë":149,"Ì":150,"Í":151,"Î":152,"Ï":153,"Ð":154,"Ñ":155,"Ò":156,"Ó":157,"Ô":158,"Õ":159,"Ö":160,"×":161,"Ø":162,"Ù":163,"Ú":164,"Û":165,"Ü":166,"Ý":167,"Þ":168,"ß":169,"à":170,"á":171,"â":172,"ã":173,"ä":174,"å":175,"æ":176,"ç":177,"è":178,"é":179,"ê":180,"ë":181,"ì":182,"í":183,"î":184,"ï":185,"ð":186,"ñ":187,"ò":188,"ó":189,"ô":190,"õ":191,"ö":192,"÷":193,"ø":194,"ù":195,"ú":196,"û":197,"ü":198,"ý":199,"þ":200,"ÿ":201,"Ā":202,"ā":203,"Ă":204,"ă":205,"Ą":206,"ą":207,"Ć":208,"ć":209,"Ĉ":210,"ĉ":211,"Ċ":212,"ċ":213,"Č":214,"č":215,"Ď":216,"ď":217,"Đ":218,"đ":219,"Ē":220,"ē":221,"Ĕ":222,"ĕ":223,"Ė":224,"ė":225,"Ę":226,"ę":227,"Ě":228,"ě":229,"Ĝ":230,"ĝ":231,"Ğ":232,"ğ":233,"Ġ":234,"ġ":235,"Ģ":236,"ģ":237,"Ĥ":238,"ĥ":239,"Ħ":240,"ħ":241,"Ĩ":242,"ĩ":243,"Ī":244,"ī":245,"Ĭ":246,"ĭ":247,"Į":248,"į":249,"İ":250,"ı":251,"Ĳ":252,"ĳ":253,"Ĵ":254,"ĵ":255,"Ķ":256,"ķ":257,"ĸ":258,"Ĺ":259,"ĺ":260,"Ļ":261,"ļ":262,"Ľ":263,"ľ":264,"Ŀ":265,"ŀ":266,"Ł":267,"ł":268,"Ń":269,"Ġ\"":270,"\":":271,"an":272,"\",":273,"pu":274,"ng":275,"am":276,"in":277,"on":278,"ah":279,"er":280,"Ġk":281,"put":282,"di":283,"pung":284,"ampung":285,"ct":286,"si":287,"em":288,"kan":289,"sa":290,"esi":291,"čĊ":292,"ou":293,"\"}":294,"{\"":295,"don":296,"donesi":297,"Ġke":298,"ion":299,"ction":300,"ar":301,"ru":302,"at":303,"ang":304,"al":305,"asa":306,"Ġb":307,"Ġm":308,"st":309,"en":310,"ĠL":311,"ak":312,"ĠB":313,"erj":314,"ĠLampung":315,"stru":316,"out":317,"input":318,"instru":319,"output":320,"instruction":321,"ahasa":322,"In":323,"ĠBahasa":324,"ahkan":325,"ĠIn":326,"donesia":327,"ĠIndonesia":328,"erjem":329,"Terjem":330,"Terjemahkan":331,"eng":332,"ĠO":333,"lampung":334,"Ġp":335,"Ġdi":336,"Ġd":337,"bu":338,"ya":339,"Ġt":340,"li":341,".\",":342,"Ġs":343,"ce":344,"tu":345,"da":346,"pe":347,"Ġy":348,"un":349,"ai":350,"lis":351,"ale":352,"lish":353,"rce":354,"sou":355,"source":356,"ty":357,"indonesi":358,"diale":359,"english":360,"type":361,"indonesian":362,"dialect":363,"Ġ\"\",":364,"Ġa":365,"us":366,"el":367,"Ġyg":368,"po":369,"kam":370,"as":371,".\"}":372,"diction":373,"ary":374,"buda":375,"pos":376,"kamus":377,"dictionary":378,"budaya":379,"ap":380,"Ġl":381,"Ġse":382,"ik":383,"au":384,"ing":385,"uk":386,"Ġber":387,"ga":388,"Ġn":389,"Ġi":390,"Ġsa":391,"aj":392,"pa":393,"tuk":394,"Ġmen":395,"ung":396,"ay":397,"is":398,"it":399,"ara":400,"ul":401,"Ġh":402,"ag":403,"ek":404,"dat":405,"il":406,"ho":407,"Ġat":408,"ur":409,"Ġu":410,"Ġadat":411,"Ġyang":412,"Ġj":413,"Ġun":414,"et":415,"Ġw":416,"Ġuntuk":417,"Ġdan":418,"akan":419,"pai":420,"ain":421,"Ġg":422,"raj":423,"Ġmem":424,"um":425,"aw":426,"ei":427,"cara":428,"rajo":429,"tuho":430,"ari":431,"ent":432,"rajotuho":433,"or":434,"Ġin":435,"Ġatau":436,"ol":437,"nya":438,"eh":439,"Ġc":440,"ut":441,"Ġper":442,"eg":443,"ence":444,"Ġan":445,"sent":446,"pair":447,"sentence":448,"Ġmeng":449,"id":450,"bang":451,"Ġbe":452,"Ġter":453,"ber":454,"ih":455,"yak":456,"ir":457,"engan":458,"akai":459,"Ġr":460,"ab":461,"eu":462,"im":463,"Ġkel":464,"ud":465,"Ġru":466,"Ġ(":467,"adi":468,"mah":469,"ti":470,"se":471,"ian":472,"alam":473,"angg":474,"aki":475,"orang":476,"Ġrumah":477,"Ġsi":478,"ri":479,"ep":480,"?\",":481,"Ġdng":482,"ny":483,"Ġdip":484,"Ġtu":485,"apis":486,"pat":487,"idak":488,"ana":489,"amb":490,"eb":491,"tan":492,"uj":493,"Ġpd":494,"gaw":495,"ow":496,"Ġdig":497,"eny":498,"anya":499,"oleh":500,"Ġag":501,"kain":502,"Ġpu":503,"jo":504,"Ġoleh":505,"angk":506,"Ġdr":507,"Ġben":508,"Ġtidak":509,"aya":510,"ok":511,"ahan":512,"ita":513,"Ġng":514,"uar":515,"ĠN":516,"unakan":517,"dang":518,"per":519,"imbang":520,"uw":521,"Ġsek":522,"ada":523,"ong":524,"uh":525,"ukan":526,"Ġdalam":527,"buat":528,"Ġini":529,"asi":530,"eli":531,"Ġdari":532,"gh":533,"Ġsaat":534,"Ġbi":535,"Ġker":536,"Ġpe":537,"bung":538,"ama":539,"Ġku":540,"empat":541,"angan":542,"alat":543,"gawi":544,"Ġmu":545,"su":546,"emb":547,"pacara":548,"Ġlampung":549,"Ġijo":550,"ben":551,"Ġput":552,"apa":553,"tin":554,"yam":555,"Ġdil":556,"Ġupacara":557,"Ġdipakai":558,"Ġino":559,"Ġga":560,"Ġorang":561,"amu":562,"Ġbu":563,"Ġmer":564,"Ġbegawi":565,"pel":566,"Ġacara":567,"udah":568,"ew":569,"ro":570,"ingg":571,"ayah":572,"es":573,"pi":574,"pan":575,"Ġpengan":576,"Ġdigunakan":577,"Di":578,"upa":579,"Ġpan":580,"Ġtapis":581,"Ġitu":582,"antu":583,"ambu":584,"Ġkain":585,"elah":586,"Ġpengantin":587,"om":588,"cil":589,"ikan":590,"dis":591,"atu":592,"Ġbag":593,"Ġmau":594,"Ġmeny":595,"Ġgel":596,"Ġputih":597,"oh":598,"egh":599,"Ġanak":600,"enyimbang":601,"?\"}":602,"Ġdengan":603,"ad":604,"kh":605,"Ġmak":606,"Ġmel":607,"asan":608,"Ġkeluar":609,"arn":610,"Ġli":611,"dun":612,"meng":613,"pal":614,"Ġikan":615,"Ġsaya":616,"ke":617,"mem":618,"Ġkal":619,"Ġpeng":620,"padun":621,"ĠS":622,"Ġar":623,"Ġcal":624,"ku":625,"Ġpada":626,"Ġda":627,"buh":628,"Ġti":629,"uran":630,"bentuk":631,"Ġgadis":632,"Ġbal":633,"puan":634,"Ġkem":635,"Ġked":636,"Ġkecil":637,"rung":638,"Ġada":639,"ayu":640,"Ġbenang":641,"Ġpem":642,"Ġny":643,"Ġbel":644,"lah":645,"amun":646,"Ġman":647,"Ġsudah":648,"Ġwan":649,"Ġterbuat":650,"Ġkeluarga":651,"hat":652,"Nyak":653,"peng":654,"tapis":655,"Ġdiber":656,"agh":657,"Ġgh":658,"tt":659,"tik":660,"Ġdis":661,"tif":662,"bg":663,"yo":664,"run":665,"Ġpel":666,"Ġsbg":667,"Ġseb":668,"Ġsesu":669,"ikat":670,"Ġberbentuk":671,"Ġatas":672,"Ġpepadun":673,"Ġgelar":674,"Ġcalon":675,"Ġwanita":676,"ua":677,"Ġdak":678,"Ġmengg":679,"Saya":680,"otif":681,"Ġkamu":682,"empuan":683,"akukan":684,"ilan":685,"ujan":686,"ed":687,"ta":688,"Ġpuny":689,"anyak":690,"ĠK":691,"sat":692,"aran":693,"Ġpenyimbang":694,"Ġlaki":695,"Ġberupa":696,"Ġist":697,"Ġsak":698,"ran":699,"ac":700,"Ġpen":701,"sesi":702,"Ġkun":703,"alan":704,"engk":705,"apan":706,"arna":707,").\",":708,"radi":709,"laki":710,"atang":711,"Ġtan":712,"asanya":713,"Ġju":714,"awah":715,"Ġperempuan":716,"rosesi":717,"Ġnik":718,"ulah":719,"sar":720,"pen":721,"Ġbambu":722,"engah":723,"Ġdik":724,"Ġsut":725,"Ġsesuatu":726,"Ġistri":727,"radisi":728,"ci":729,"amo":730,"api":731,"epan":732,"esa":733,"ja":734,"men":735,"rn":736,"ver":737,"Ġya":738,"Ġkayu":739,"arang":740,"angga":741,"Ġakan":742,"Ġleb":743,"ungai":744,"agi":745,"Ġuj":746,"Ġmempel":747,"Ġbagian":748,"Ġmempelai":749,"jak":750,"Ġdepan":751,"Ġago":752,"pt":753,"ĠA":754,"Ġbanyak":755,"lik":756,"Ġsu":757,"Ġway":758,"jang":759,"lat":760,"mu":761,"tar":762,"Ġkar":763,"Ġtempat":764,"Ġseper":765,"ukuran":766,"awa":767,"Ġkelapa":768,"ĠNyo":769,"Ġdilakukan":770,"pul":771,"ig":772,"san":773,"ĠT":774,"pur":775,"Ġkak":776,"Ġkrn":777,"aru":778,"arak":779,"ali":780,"alu":781,"Ġmas":782,"ena":783,"buk":784,"Ġsungai":785,"Ġspt":786,"dai":787,"Ġlamun":788,"Ġuang":789,"Ġbalak":790,"ej":791,"utu":792,"Ġsel":793,"nik":794,"sama":795,"up":796,"and":797,"Ġkeu":798,"ati":799,"Ġbul":800,"Ġtum":801,"Ġtengah":802,"elum":803,"Ġset":804,"Ġhujan":805,"ett":806,"akaian":807,"Ġbiasanya":808,"ohon":809,"Ġdaun":810,"Ġsakit":811,"no":812,"ĠM":813,"atan":814,"Ġpingg":815,"abar":816,"ot":817,"ami":818,"ding":819,"Ġdib":820,"con":821,"pd":822,"sel":823,"uang":824,"Ġkampung":825,"Ġkpd":826,"ata":827,"Ġmakan":828,"Ġpohon":829,"ling":830,"dail":831,"Ġayam":832,"ikah":833,"Ġberw":834,"Ġum":835,"Ġbesar":836,"Ġbuah":837,"sation":838,"versation":839,"Ġseperti":840,"conversation":841,"daily":842,"Ġwat":843,"ter":844,"ĠP":845,"asar":846,"uwo":847,"gel":848,"isa":849,"jadi":850,"Ġ-":851,"amp":852,"ampai":853,"Ġkita":854,"Ġkepa":855,"air":856,"Ġapa":857,"uku":858,"iti":859,"Ġmuli":860,"antung":861,"Ġdiberikan":862,"Ġlebih":863,"Ġsetelah":864,"Ġkepada":865,"Ġmul":866,"aman":867,"enda":868,"ker":869,"motif":870,"ob":871,"sana":872,"yarak":873,"puk":874,"ahu":875,"Ġbuj":876,"Ġbaru":877,"endang":878,"Ġpri":879,"Ġto":880,"lit":881,"tum":882,"Ġnyak":883,"Ġnayah":884,"Ġmenikah":885,"isang":886,"Ġhi":887,"Ġmemb":888,"ewan":889,"Ġsebelum":890,"Ġpunyimbang":891,"Ġkuning":892,"Ġjuga":893,"Ġkarena":894,"Ġberwarna":895,"aga":896,"ken":897,"ungg":898,"Ġser":899,"Sel":900,"abung":901,"bag":902,"cak":903,"kun":904,"prosesi":905,"tara":906,"ĠH":907,"Ġair":908,"inan":909,"dik":910,"Ġmasi":911,"entu":912,"enun":913,"Ġpadi":914,"Ġdegh":915,"bun":916,"Ġyo":917,"pok":918,"Ġbersama":919,"olah":920,"ses":921,"seorang":922,"angget":923,"Ġagow":924,"Ġmusi":925,"Ġkalau":926,"Ġnyow":927,"yarakat":928,"Ġpria":929,"yan":930,"Ġkan":931,"Ġanjak":932,"Ġhar":933,"..":934,"bau":935,"cing":936,"gas":937,"hi":938,"makan":939,"pem":940,"tempat":941,"uc":942,"ĠG":943,"ĠR":944,"ini":945,"onal":946,"alau":947,"Ġbawah":948,"Ġpisang":949,"but":950,"Ġtangan":951,"Ġtradisi":952,"Ġlain":953,"Ġsar":954,"Ġsaja":955,"aju":956,"Ġmendi":957,"Ġmenantu":958,"Ġhari":959,"Ġpernik":960,"uduk":961,"Ġtua":962,"Ġsekolah":963,"Ġpanjang":964,"ompok":965,"Ġaris":966,"Ġmandi":967,"Ġgham":968,"Ġnikeu":969,"Ġbujang":970,"Ġpernikahan":971,"Ġkabar":972,"Ġnuwo":973,"Ġjamo":974,"rans":975,"Ġpinggir":976,"Trans":977,"ilik":978,"kem":979,"anti":980,"Ġko":981,"akh":982,"apat":983,"Ġsecara":984,")\",":985,"Eng":986,"gkh":987,"itu":988,"mana":989,"pemb":990,"so":991,"Ġgaw":992,"ĠEng":993,"anj":994,"ngk":995,"amat":996,"inya":997,"Ġkh":998,"emu":999,"Ġkepal":1000,"Ġketik":1001,"Ġbun":1002,"Ġbay":1003,"Ġbatang":1004,"butan":1005,"pek":1006,"Ġlagi":1007,"Ġseseorang":1008,"Ġberukuran":1009,"Ġhewan":1010,"Ġwak":1011,"Ġcangget":1012,"Ġkelompok":1013,"Ġturun":1014,"ambilan":1015,"angkap":1016,"Ġbentuk":1017,"Ġkering":1018,"Ġkedua":1019,"late":1020,"Ġtradisional":1021,"Translate":1022,"ĠEnglish":1023,"Ġkepala":1024,").\"}":1025,"gi":1026,"juk":1027,"man":1028,"Ġdin":1029,"Ġsekulah":1030,"Ġberb":1031,"Ġibu":1032,"Ny":1033,"adat":1034,"bak":1035,"isi":1036,"ko":1037,"kum":1038,"mas":1039,"ser":1040,"Ġf":1041,"Ġcara":1042,"Ġalat":1043,"ant":1044,"Ġki":1045,"Ġkur":1046,"dian":1047,"Ġken":1048,"aro":1049,"arah":1050,"Ġbahan":1051,"Ġmun":1052,"Ġmotif":1053,"aku":1054,"Ġdenda":1055,"bul":1056,"Ġtelah":1057,"Ġtenun":1058,"undang":1059,"aik":1060,"aso":1061,"ukum":1062,"Ġnei":1063,"Ġhukum":1064,"ekat":1065,"ilayah":1066,"Ġwilayah":1067,"Ġsiw":1068,"Ġbisa":1069,"yaman":1070,"Ġmerah":1071,"Ġlim":1072,"Ġdiberi":1073,"Ġsuttan":1074,"ettei":1075,"Ġmusim":1076,"Ġgaweh":1077,"Ġketika":1078,"he":1079,"Ġsang":1080,"Ġanek":1081,"Ġmengh":1082,"Ġmenggunakan":1083,"han":1084,"ham":1085,"kaw":1086,"le":1087,"mus":1088,"pangg":1089,"penyimbang":1090,"sem":1091,"uy":1092,"Ġang":1093,"Ġul":1094,"Ġempat":1095,"nge":1096,"nger":1097,"ono":1098,"Ġkaki":1099,"Ġketu":1100,"Ġkesana":1101,"atas":1102,"Ġmeu":1103,"end":1104,"enis":1105,"Ġpin":1106,"Ġpakaian":1107,"Ġdit":1108,"buah":1109,"Ġsem":1110,"Ġsen":1111,"cepal":1112,"usun":1113,"eluar":1114,"askan":1115,"Ġberadat":1116,"Ġsatu":1117,"Ġmenc":1118,"agung":1119,"etak":1120,"Ġmember":1121,"iring":1122,"sebutan":1123,"Ġtugas":1124,"ujut":1125,"Ġagung":1126,"okoh":1127,"roses":1128,"ambutan":1129,"Ġtiga":1130,"Ġujan":1131,"selendang":1132,"Ġhiasan":1133,"Selamat":1134,"Ġmendiami":1135,"masyarakat":1136,"cepalo":1137,"aling":1138,"Ġbing":1139,"Ġte":1140,"apah":1141,"Ġmengan":1142,"Ġpunyeu":1143,"mer":1144,"Ġdapat":1145,"Kel":1146,"Oh":1147,"Yo":1148,"bi":1149,"bal":1150,"bel":1151,"cc":1152,"dak":1153,"go":1154,"ji":1155,"lai":1156,"main":1157,"pak":1158,"tari":1159,"tradisi":1160,"uru":1161,"ubang":1162,"wa":1163,"wah":1164,"yang":1165,"yeu":1166,"ĠD":1167,"ĠJ":1168,"Ġal":1169,"Ġulah":1170,"anak":1171,"one":1172,"saya":1173,"asak":1174,"Ġbaju":1175,"Ġmalam":1176,"sta":1177,"enang":1178,"Ġpeny":1179,"Ġprosesi":1180,"Ġdibuat":1181,"bus":1182,"yaw":1183,"Ġtokoh":1184,"unga":1185,"ulu":1186,"eka":1187,"Ġjalan":1188,"akang":1189,"Ġgar":1190,"Ġmemper":1191,"Ġbeli":1192,"Ġtert":1193,"iran":1194,"adiri":1195,"ambil":1196,"Ġdigantung":1197,"ongan":1198,"elihat":1199,"Ġpesta":1200,"Ġkalian":1201,"Ġkedow":1202,"Ġpelep":1203,"Ġujung":1204,"Ġmasuk":1205,"buka":1206,"Ġbulat":1207,"ampaikan":1208,"Ġmasih":1209,"Ġhukuman":1210,"Ġsiwo":1211,"eluarkan":1212,"od":1213,"tel":1214,"Ġniku":1215,"Ke":1216,"be":1217,"ani":1218,"Ġdua":1219,"Ġis":1220,"berapa":1221,"Al":1222,"Hai":1223,"Iya":1224,"Sak":1225,"\\\"":1226,"bo":1227,"bing":1228,"bek":1229,"du":1230,"duk":1231,"ger":1232,"jenis":1233,"kuk":1234,"ket":1235,"kayu":1236,"nei":1237,"pin":1238,"pah":1239,"proses":1240,"sb":1241,"Ġ[":1242,"Ġasa":1243,"Ġen":1244,"eru":1245,"sir":1246,"sak":1247,"Ġbah":1248,"Ġbat":1249,"Ġbang":1250,"Ġbunga":1251,"Ġmettei":1252,"Ġpak":1253,"Ġpisa":1254,"Ġdic":1255,"Ġdij":1256,"Ġduduk":1257,"Ġdsb":1258,"Ġtt":1259,"Ġtel":1260,"Ġtet":1261,"Ġsemb":1262,"alek":1263,"Ġabung":1264,"asang":1265,"ingga":1266,"Ġbermotif":1267,"Ġno":1268,"Ġsalah":1269,"Ġsawah":1270,"ayaran":1271,"itan":1272,"ulang":1273,"Ġup":1274,"Ġwarna":1275,"Ġperkaw":1276,"ego":1277,"Ġantara":1278,"Ġanyaman":1279,"berian":1280,"aba":1281,"abik":1282,"Ġtubuh":1283,"Ġagar":1284,"angkat":1285,"ĠNeg":1286,"ĠNabung":1287,"Ġsekali":1288,"Ġkulit":1289,"Ġmuda":1290,"inggal":1291,"piah":1292,"Ġpengambilan":1293,"Ġbelakang":1294,"Ġdisampaikan":1295,"utup":1296,"Ġtumbuh":1297,"Ġumpan":1298,"bagian":1299,"ĠHasan":1300,"Ġkanan":1301,"Ġharus":1302,"ĠRaj":1303,"pembayaran":1304,"ngkong":1305,"Ġbunda":1306,"Nyow":1307,"Ġangin":1308,"Ġperkawinan":1309,"Ġkamb":1310,"Ġikam":1311,"ulam":1312,"uwak":1313,"eda":1314,"ikam":1315,"akar":1316,"asil":1317,"Bu":1318,"abu":1319,"abang":1320,"beb":1321,"cin":1322,"gak":1323,"igh":1324,"kek":1325,"masi":1326,"os":1327,"pakaian":1328,"rem":1329,"rik":1330,"sujut":1331,"tab":1332,"uan":1333,"udian":1334,"Ã¢":1335,"Ġem":1336,"Ġrajo":1337,"Ġikat":1338,"Ġukuran":1339,"amar":1340,"inta":1341,"eri":1342,"atei":1343,"alo":1344,"Ġma":1345,"Ġmagh":1346,"enno":1347,"Ġpemb":1348,"Ġdawah":1349,"Ġdesa":1350,"Ġdasar":1351,"Ġtem":1352,"Ġsuk":1353,"Ġsupa":1354,"Ġsuku":1355,"tua":1356,"unkan":1357,"Ġlam":1358,"Ġsei":1359,"Ġseorang":1360,"Ġsedang":1361,"ingk":1362,"Ġnasi":1363,"Ġnama":1364,"Ġnanti":1365,"Ġia":1366,"Ġsarung":1367,"ajat":1368,"pay":1369,"Ġmend":1370,"Ġmenj":1371,"Ġmenjadi":1372,"Ġmenangkap":1373,"isan":1374,"itar":1375,"ulai":1376,"agai":1377,"Ġupo":1378,"Ġjadi":1379,"Ġjagung":1380,"awo":1381,"awon":1382,"entang":1383,"Ġpert":1384,"Ġperut":1385,"egkh":1386,"Ġano":1387,"iri":1388,"Ġrambutan":1389,"abat":1390,"abai":1391,"udukan":1392,"angguk":1393,"Ġsingkong":1394,"ambat":1395,"Ġpul":1396,"Ġbenda":1397,"Ġngen":1398,"elih":1399,"ghuk":1400,"Ġkerbau":1401,"Ġkerabat":1402,"Ġkue":1403,"Ġbagi":1404,"Ġkemudian":1405,"runan":1406,"engkap":1407,"Ġtanah":1408,"Ġsutan":1409,"Ġsuatu":1410,"jadikan":1411,"itia":1412,"Ġmulai":1413,"makanan":1414,"Ġbentuknya":1415,"Ġmunih":1416,"Ġmenghadiri":1417,"etakkan":1418,"yawarah":1419,"Ġpisaan":1420,"Ġemas":1421,"dara":1422,"Ġtungg":1423,"Ġlapah":1424,"awai":1425,"dal":1426,"Ġce":1427,"Ġtah":1428,"Ġas":1429,"Ġbeberapa":1430,"Ġsangat":1431,")\"}":1432,"Ikam":1433,"Kak":1434,"Kalau":1435,"Lamun":1436,"af":1437,"bat":1438,"dan":1439,"dah":1440,"ebung":1441,"ic":1442,"jung":1443,"ki":1444,"kus":1445,"kur":1446,"llah":1447,"mat":1448,"meny":1449,"ne":1450,"nak":1451,"oa":1452,"sek":1453,"sud":1454,"tang":1455,"the":1456,"ug":1457,"Ġ2":1458,"ampan":1459,"erah":1460,"Ġkum":1461,"diri":1462,"Ġkebun":1463,"alang":1464,"Ġberj":1465,"Ġbaik":1466,"Ġme":1467,"Ġmelihat":1468,"Ġmego":1469,"aksan":1470,"ĠBu":1471,"erja":1472,"Ġpay":1473,"Ġpag":1474,"Ġpasar":1475,"Ġdiikat":1476,"Ġdijadikan":1477,"Ġdag":1478,"Ġdur":1479,"Ġdew":1480,"bub":1481,"bubu":1482,"yay":1483,"Ġtari":1484,"Ġtamu":1485,"lillah":1486,"Ġsus":1487,"Ġsamp":1488,"Ġsampai":1489,"tutu":1490,"peu":1491,"asuk":1492,"Ġlu":1493,"Ġlah":1494,"Ġlem":1495,"Ġlak":1496,"Ġlun":1497,"Ġlutu":1498,"Ġseg":1499,"Ġsesat":1500,"ika":1501,"Ġbert":1502,"Ġsapi":1503,"Ġsaling":1504,"aji":1505,"Ġmenari":1506,"Ġmenyam":1507,"ulung":1508,"Ġhanya":1509,"Ġhasil":1510,"Ġjam":1511,"Ġwarn":1512,"Ġmemakai":1513,"Ġmembuat":1514,"awang":1515,"awil":1516,"olak":1517,"utan":1518,"ima":1519,"udara":1520,"anggang":1521,"Ġdiper":1522,"Ġtuan":1523,"patan":1524,"permain":1525,"Ġkeras":1526,"Ġburung":1527,"Ġmereka":1528,"Dia":1529,"Ġpanen":1530,"mengg":1531,"buhan":1532,"Ġtiang":1533,"Ġtiyan":1534,"Ġkedudukan":1535,"Ġpemberian":1536,"Ġbelum":1537,"Ġpelak":1538,"ĠKarang":1539,"acc":1540,"Ġkuny":1541,"Ġtanpa":1542,"pulan":1543,"Ġumum":1544,"kunjung":1545,"Ġkhitan":1546,"Ġbayi":1547,"Ġkiyay":1548,"hamdu":1549,"musyawarah":1550,"panggilan":1551,"Ġtertentu":1552,"Ġpelepasan":1553,"Ġsupaya":1554,"aksanakan":1555,"Ġsusah":1556,"permainan":1557,"hamdulillah":1558,"akak":1559,"Ġpakai":1560,"Ġtek":1561,"Ġhaga":1562,"Ġbes":1563,"Ġsihat":1564,"daraan":1565,"].\",":1566,"mur":1567,"ont":1568,"sing":1569,"Ġpat":1570,"Ġpol":1571,"Ġsum":1572,"tur":1573,"elan":1574,"murid":1575,"Ber":1576,"Dak":1577,"Ikan":1578,"Ti":1579,"apo":1580,"adang":1581,"bay":1582,"bed":1583,"cap":1584,"ekam":1585,"fat":1586,"ist":1587,"jej":1588,"kal":1589,"kaki":1590,"kep":1591,"keli":1592,"lam":1593,"lak":1594,"lnya":1595,"mt":1596,"mel":1597,"meh":1598,"memb":1599,"pap":1600,"pakai":1601,"peny":1602,"ra":1603,"sum":1604,"smt":1605,"tas":1606,"teu":1607,"urung":1608,"uci":1609,"wat":1610,"way":1611,"yi":1612,"yur":1613,"Ġlis":1614,"Ġangg":1615,"Ġ\\\"":1616,"anai":1617,"andai":1618,"ancing":1619,"puh":1620,"pun":1621,"ngeg":1622,"ngeb":1623,"amai":1624,"ampur":1625,"injak":1626,"intang":1627,"aha":1628,"Ġkas":1629,"Ġkiri":1630,"emmeh":1631,"Ġkec":1632,"arkan":1633,"arat":1634,"aring":1635,"rumah":1636,"ala":1637,"alapan":1638,"asal":1639,"Ġbek":1640,"Ġbum":1641,"Ġbad":1642,"enc":1643,"enakan":1644,"engar":1645,"engat":1646,"Ġpakan":1647,"Ġpih":1648,"Ġpaling":1649,"Ġdipa":1650,"Ġditar":1651,"Ġdimana":1652,"Ġdg":1653,"Ġdl":1654,"Ġdekat":1655,"bur":1656,"buahan":1657,"Ġtadi":1658,"Ġtangga":1659,"Ġsah":1660,"Ġsun":1661,"Ġsangg":1662,"Ġsong":1663,"daun":1664,"dapat":1665,"pet":1666,"Ġapi":1667,"elek":1668,"apas":1669,"Ġlau":1670,"Ġlengan":1671,"Ġluar":1672,"Ġseh":1673,"ikut":1674,"ikeu":1675,"ukuk":1676,"Ġnil":1677,"Ġmenuj":1678,"Ġmeninggal":1679,"ungku":1680,"ayan":1681,"Ġhal":1682,"Ġhingga":1683,"agkh":1684,"Ġjika":1685,"Ġwad":1686,"Ġgeg":1687,"Ġmemakan":1688,"Ġmemasuk":1689,"umlah":1690,"Ġmengeluarkan":1691,"idur":1692,"berit":1693,"yakit":1694,"tip":1695,"Ġsisa":1696,"Ġsiang":1697,"rib":1698,"nyo":1699,"nyuwak":1700,"Ġdipasang":1701,"Ġtuho":1702,"Ġpun":1703,"angkah":1704,"okok":1705,"Ġnger":1706,"Ġngawil":1707,"ĠNyak":1708,"adaan":1709,"elik":1710,"Ġkertas":1711,"Ġdilapi":1712,"Dialek":1713,"upakan":1714,"Ġpanitia":1715,"Ġpandan":1716,"omb":1717,"Ġmelakukan":1718,"Ġmelaksanakan":1719,"mengundang":1720,"ked":1721,"membuka":1722,"ĠSaya":1723,"kue":1724,"Ġdapur":1725,"Ġkemar":1726,"Ġbelei":1727,"Ġsesuai":1728,"Ġsakik":1729,"Ġtano":1730,"menc":1731,"Ġyaitu":1732,"anggagh":1733,"muli":1734,"puluh":1735,"Ġselendang":1736,"Ġpinggang":1737,"Ġdibawa":1738,"sanaan":1739,"pukul":1740,"Ġmembawa":1741,"Ġkuningan":1742,"cakapan":1743,"Ġmasing":1744,"ucuk":1745,"Ġwaktu":1746,"Ġdinding":1747,"kopiah":1748,"Ġkurang":1749,"Ġlima":1750,"Ġlimar":1751,"Ġketurunan":1752,"Ġpintu":1753,"Ġmemberi":1754,"tarian":1755,"Ġdigantungkan":1756,"Ġujungnya":1757,"Ġenak":1758,"erupai":1759,"Ġbahwa":1760,"Ġdicampur":1761,"Ġtetapi":1762,"Ġsembilan":1763,"cindai":1764,"table":1765,"Ġsuka":1766,"Ġpertama":1767,"Ġngenah":1768,"Ġdaging":1769,"Ġdurian":1770,"Ġsamping":1771,"Ġlutut":1772,"Ġpelaksanaan":1773,"paper":1774,"Ġlisan":1775,"Ġkasur":1776,"Ġpihak":1777,"Ġsongket":1778,"Ġmenuju":1779,"Ġdilapisi":1780,"hon":1781,"ibu":1782,"re":1783,"sur":1784,"Ġlaw":1785,"Ġwawai":1786,"Ġcakak":1787,"Ġngej":1788,"kendaraan":1789,"Ġbingei":1790,"Ġtunggo":1791,"lo":1792,"nyak":1793,"tat":1794,"inkan":1795,"auan":1796,"Ġberd":1797,"Ġmemilik":1798,"akhir":1799,"Dang":1800,"Dian":1801,"Jangan":1802,"Kem":1803,"Pun":1804,"Tan":1805,"Tabik":1806,"Un":1807,"abuh":1808,"ban":1809,"beng":1810,"bil":1811,"beli":1812,"batang":1813,"cuk":1814,"ey":1815,"gesa":1816,"hal":1817,"hujan":1818,"icara":1819,"jam":1820,"jah":1821,"jata":1822,"kel":1823,"kul":1824,"la":1825,"luk":1826,"mi":1827,"mam":1828,"mengan":1829,"oyang":1830,"pkan":1831,"pang":1832,"rang":1833,"sen":1834,"tah":1835,"terj":1836,"ting":1837,"tek":1838,"talam":1839,"tidak":1840,"tali":1841,"tangguk":1842,"ub":1843,"usi":1844,"wan":1845,"Ġ/":1846,"Ġ1":1847,"ĠY":1848,"Ġo":1849,"Ġv":1850,"Ġak":1851,"Ġing":1852,"Ġraj":1853,"Ġor":1854,"anda":1855,"antan":1856,"pukan":1857,"amal":1858,"ina":1859,"inai":1860,"era":1861,"Ġkat":1862,"Ġkul":1863,"dih":1864,"sianya":1865,"emar":1866,"empel":1867,"salai":1868,"sayur":1869,"Ġkep":1870,"Ġkeno":1871,"ruk":1872,"atuh":1873,"alas":1874,"alian":1875,"Ġbeg":1876,"Ġbarang":1877,"Ġmana":1878,"Ġmangga":1879,"Ġmati":1880,"Ġmatei":1881,"ĠBur":1882,"Ġpara":1883,"Ġdia":1884,"Ġdim":1885,"Ġdise":1886,"Ġdiri":1887,"Ġditan":1888,"Ġdibung":1889,"Ġdihi":1890,"yapeu":1891,"Ġtak":1892,"Ġtaj":1893,"Ġtentang":1894,"Ġtidur":1895,"lim":1896,"liah":1897,"Ġsanggagh":1898,"cet":1899,"tuw":1900,"pes":1901,"pepadun":1902,"Ġyah":1903,"unang":1904,"unya":1905,"unas":1906,"aimana":1907,"Ġadik":1908,"Ġaji":1909,"elesa":1910,"pong":1911,"pohon":1912,"kamu":1913,"aseh":1914,"asangan":1915,"appeng":1916,"Ġlama":1917,"Ġlalu":1918,"Ġlengkap":1919,"Ġsehat":1920,"Ġsepuluh":1921,"auh":1922,"ukh":1923,"Ġbersu":1924,"Ġbertum":1925,"Ġberisi":1926,"gadis":1927,"Ġna":1928,"Ġnak":1929,"Ġnya":1930,"Ġsaudara":1931,"ajengk":1932,"ayeu":1933,"isahkan":1934,"iting":1935,"uluh":1936,"Ġhutan":1937,"ekh":1938,"Ġusianya":1939,"Ġjung":1940,"Ġjenno":1941,"Ġjauh":1942,"etahu":1943,"Ġwaj":1944,"Ġwayah":1945,"Ġmemisahkan":1946,"oreng":1947,"Ġcucuk":1948,"Ġperahu":1949,"Ġpergi":1950,"egi":1951,"idah":1952,"ider":1953,"bangan":1954,"Ġterpakai":1955,"Ġrem":1956,"Ġrak":1957,"Ġrasanya":1958,"Ġrenc":1959,"abing":1960,"impin":1961,"Ġkelas":1962,"sesa":1963,"Ġsir":1964,"Ġsiapa":1965,"Ġdipingg":1966,"Ġtuj":1967,"ambal":1968,"Ġagak":1969,"Ġpunya":1970,"angka":1971,"angkon":1972,"angkai":1973,"Ġngeb":1974,"Ġnggak":1975,"Ġsekitar":1976,"asih":1977,"Ġbib":1978,"Ġbicara":1979,"Ġkughuk":1980,"Ġkuliah":1981,"alatan":1982,"embelih":1983,"benda":1984,"Ġdilengk":1985,"Ġdiletakkan":1986,"Ġmerupakan":1987,"inggi":1988,"esan":1989,"Ġmenyerupai":1990,"adu":1991,"keadaan":1992,"memakai":1993,"Ġpengiran":1994,"Ġaro":1995,"Ġdapek":1996,"Ġbalai":1997,"Ġpeman":1998,"Ġmanuk":1999,"pengambilan":2000,"Ġdisini":2001,"Ġsebagai":2002,"Ġmenggunkan":2003,"Ġpenyakit":2004,"penutup":2005,"penyapeu":2006,"Ġdikeluarkan":2007,"Ġdikenakan":2008,"ĠApa":2009,"likap":2010,"Ġsuami":2011,"igi":2012,"igit":2013,"pura":2014,"Ġmasyarakat":2015,"Ġmasso":2016,"Ġselalu":2017,"uppek":2018,"Ġtumpal":2019,"otongan":2020,"Ġmakanan":2021,"isalnya":2022,"itiga":2023,"antungkan":2024,"Ġmulut":2025,"keris":2026,"ahuan":2027,"Ġhias":2028,"Ġdeghian":2029,"ĠGun":2030,"ĠRita":2031,"Ġsarat":2032,"Ġsarang":2033,"anjung":2034,"Ġkhas":2035,"Ġbayo":2036,"mandi":2037,"Ġberbahan":2038,"kumpul":2039,"Ġsemua":2040,"Ġmencuci":2041,"Ġtepung":2042,"ccah":2043,"ubangi":2044,"Ġgaram":2045,"begawi":2046,"Alhamdulillah":2047,"Alangkah":2048,"Sakik":2049,"Sakit":2050,"siram":2051,"Ġbangik":2052,"Ġtelu":2053,"Ġuppan":2054,"Ġupone":2055,"ĠNegara":2056,"ĠNegaro":2057,"Ġkambing":2058,"Ġmaaf":2059,"Ġmaghrib":2060,"Ġnasihat":2061,"payung":2062,"Ġmendengar":2063,"Ġpuluh":2064,"kura":2065,"ĠBuay":2066,"Ġdewasa":2067,"Ġlusa":2068,"Ġlahir":2069,"Ġsegitiga":2070,"Ġbertemu":2071,"Ġmenyambut":2072,"Ġwarnanya":2073,"Ġkhitanan":2074,"Ġteknik":2075,"Ġbesok":2076,"Ġbadan":2077,"Ġsahway":2078,"Ġlaut":2079,"beritahuan":2080,"usia":2081,"Ġdibungkus":2082,"ajengking":2083,"etahui":2084,"Ġdipinggir":2085,"Ġdilengkapi":2086,"for":2087,"tono":2088,"yew":2089,"anau":2090,"Ġthe":2091,"Ġtono":2092,"Ġani":2093,"Ġranau":2094,"Ġdakjo":2095,"Ġkambas":2096,"Ġngejuk":2097,"cal":2098,"ge":2099,"ris":2100,"ĠI":2101,"ngg":2102,"ering":2103,"atur":2104,"Ġadal":2105,"ajar":2106,"ungk":2107,"alami":2108,"Ġbelajar":2109,"sanak":2110,"Ġmemiliki":2111,"Ġadalah":2112,"),":2113,"An":2114,"Ada":2115,"Banyak":2116,"Baik":2117,"Cawo":2118,"Dik":2119,"Dis":2120,"Gham":2121,"Jemmeh":2122,"Kep":2123,"Kabar":2124,"Kata":2125,"Kunang":2126,"Lel":2127,"Leb":2128,"Lalat":2129,"Mem":2130,"Mak":2131,"Mati":2132,"Mapas":2133,"Nayah":2134,"Per":2135,"Payeu":2136,"Sudah":2137,"Sekam":2138,"Ter":2139,"Tidak":2140,"ba":2141,"berj":2142,"bet":2143,"bei":2144,"beg":2145,"bong":2146,"bes":2147,"bambu":2148,"band":2149,"cur":2150,"caya":2151,"cemar":2152,"do":2153,"dar":2154,"dana":2155,"duduk":2156,"edi":2157,"ekan":2158,"gam":2159,"gem":2160,"gen":2161,"gun":2162,"gek":2163,"gol":2164,"geg":2165,"ganya":2166,"guh":2167,"ganti":2168,"her":2169,"hkan":2170,"har":2171,"his":2172,"hewan":2173,"iyak":2174,"jing":2175,"jek":2176,"jalan":2177,"jengk":2178,"jagung":2179,"kut":2180,"kuh":2181,"kes":2182,"kegh":2183,"kikat":2184,"lu":2185,"lang":2186,"lel":2187,"lag":2188,"let":2189,"lahan":2190,"lew":2191,"laku":2192,"mak":2193,"melihat":2194,"mpong":2195,"nama":2196,"otan":2197,"par":2198,"pik":2199,"ppuk":2200,"pasang":2201,"rm":2202,"seng":2203,"sul":2204,"sangk":2205,"semb":2206,"sambal":2207,"tet":2208,"tep":2209,"ui":2210,"ugh":2211,"ubung":2212,"upacara":2213,"urun":2214,"wak":2215,"yah":2216,"ying":2217,"yuh":2218,"yarat":2219,"zin":2220,"Ġ,":2221,"Ġari":2222,"Ġamb":2223,"ĠDialek":2224,"ĠUn":2225,"Ġ\"=":2226,"anuk":2227,"andang":2228,"antik":2229,"anjang":2230,"anaskan":2231,"pus":2232,"ngel":2233,"amay":2234,"ampuan":2235,"inding":2236,"ahhan":2237,"ahulu":2238,"erud":2239,"Ġkam":2240,"Ġkil":2241,"Ġkand":2242,"Ġkot":2243,"Ġkidah":2244,"Ġkasih":2245,"putih":2246,"siger":2247,"sihkan":2248,"ema":2249,"emat":2250,"emukan":2251,"saan":2252,"Ġket":2253,"Ġkeli":2254,"Ġketan":2255,"arga":2256,"arut":2257,"arti":2258,"ato":2259,"attip":2260,"angi":2261,"alkan":2262,"Ġbeng":2263,"Ġbau":2264,"Ġbet":2265,"Ġbab":2266,"Ġbuw":2267,"Ġbatu":2268,"Ġbawa":2269,"Ġbawang":2270,"Ġmasa":2271,"Ġmus":2272,"Ġmed":2273,"Ġmaju":2274,"enan":2275,"akuk":2276,"ĠBasa":2277,"ĠBaso":2278,"engei":2279,"Ġping":2280,"Ġpek":2281,"Ġpeg":2282,"Ġpangg":2283,"Ġpagi":2284,"Ġpaman":2285,"Ġpacc":2286,"Ġdian":2287,"Ġdili":2288,"Ġdimakan":2289,"Ġdialek":2290,"Ġdiangkon":2291,"Ġdisiram":2292,"Ġder":2293,"Ġdeb":2294,"Ġdod":2295,"Ġdamar":2296,"Ġdoa":2297,"Ġdahulu":2298,"buru":2299,"Ġtik":2300,"Ġteb":2301,"Ġtom":2302,"Ġtali":2303,"Ġtulang":2304,"Ġtabu":2305,"Ġtingk":2306,"Ġtukuk":2307,"Ġtungku":2308,"Ġtunas":2309,"lihat":2310,"Ġsangk":2311,"Ġsuh":2312,"Ġsama":2313,"Ġsambil":2314,"turun":2315,"pegh":2316,"airan":2317,"Ġaw":2318,"elang":2319,"pompong":2320,"kami":2321,"asah":2322,"asei":2323,"asone":2324,"apak":2325,"Ġlin":2326,"Ġlubang":2327,"Ġlaba":2328,"Ġlalapan":2329,"Ġsekam":2330,"Ġsegh":2331,"Ġsedik":2332,"Ġsejenis":2333,"Ġseputih":2334,"iku":2335,"ingan":2336,"ingei":2337,"ukur":2338,"ukeu":2339,"Ġberc":2340,"Ġberh":2341,"Ġbers":2342,"Ġbersi":2343,"Ġberas":2344,"Ġberada":2345,"Ġberkaki":2346,"Ġnam":2347,"Ġnampan":2348,"Ġnengei":2349,"Ġir":2350,"Ġisi":2351,"Ġitt":2352,"Ġizin":2353,"Ġsalai":2354,"aja":2355,"ajaran":2356,"Ġmenan":2357,"Ġmener":2358,"Ġmenum":2359,"Ġmenentu":2360,"Ġmendapat":2361,"ayak":2362,"isah":2363,"itam":2364,"arakan":2365,"ulus":2366,"Ġhand":2367,"Ġhati":2368,"Ġhamp":2369,"Ġhaji":2370,"Ġhitam":2371,"agan":2372,"agen":2373,"ekk":2374,"ilang":2375,"horm":2376,"Ġaturan":2377,"uri":2378,"Ġuru":2379,"Ġuap":2380,"Ġutara":2381,"Ġjeng":2382,"Ġjari":2383,"Ġjarang":2384,"Ġjaman":2385,"eti":2386,"etik":2387,"Ġge":2388,"Ġmemasak":2389,"Ġmemancing":2390,"awan":2391,"awis":2392,"ore":2393,"ori":2394,"orong":2395,"ormat":2396,"olam":2397,"Ġcem":2398,"Ġcairan":2399,"uto":2400,"utik":2401,"Ġperak":2402,"Ġperwat":2403,"Ġperalatan":2404,"egei":2405,"Ġandak":2406,"Ġanying":2407,"Ġmengu":2408,"Ġmengaw":2409,"Ġmengambil":2410,"idang":2411,"Ġterpen":2412,"Ġtertua":2413,"Ġterlihat":2414,"beras":2415,"ihei":2416,"Ġrim":2417,"Ġrebung":2418,"Ġrokok":2419,"imang":2420,"imana":2421,"impan":2422,"Ġkelapo":2423,"Ġruangan":2424,"sejenis":2425,"selikap":2426,"anggil":2427,"anggaran":2428,"akibat":2429,"Ġsim":2430,"epah":2431,"epaskan":2432,"nyi":2433,"nyik":2434,"Ġdipanaskan":2435,"pati":2436,"ambah":2437,"ambahan":2438,"ebab":2439,"tanaman":2440,"Ġdigoreng":2441,"kainya":2442,"Ġpucuk":2443,"oklat":2444,"ĠNy":2445,"ĠNikeu":2446,"perempuan":2447,"uwa":2448,"Ġsekarang":2449,"Ġsekelik":2450,"adakan":2451,"buatan":2452,"eliling":2453,"Ġbiji":2454,"Ġpeccah":2455,"Ġkurung":2456,"Ġputik":2457,"tinya":2458,"yamuk":2459,"amuan":2460,"Ġbuay":2461,"Ġbuho":2462,"Ġbuaya":2463,"pelepah":2464,"Ġpanas":2465,"Ġmenyusun":2466,"Ġmenyembelih":2467,"Ġmenyimpan":2468,"Ġanaknya":2469,"aduk":2470,"Ġmelintang":2471,"Ġkeluarganya":2472,"Ġlibak":2473,"Ġlidah":2474,"Ġkali":2475,"Ġpengiring":2476,"Ġarah":2477,"Ġaren":2478,"kulit":2479,"Ġdaerah":2480,"Ġbala":2481,"Ġkemana":2482,"Ġkemampuan":2483,"Ġmanis":2484,"Ġmancing":2485,"pengaj":2486,"penglaku":2487,"aghek":2488,"aghei":2489,"Ġghasone":2490,"tikar":2491,"Ġdisana":2492,"Ġpelengkap":2493,"Ġpelanggaran":2494,"ikatan":2495,"Ġmenggantungkan":2496,"edow":2497,"acing":2498,"Ġpenj":2499,"Ġpenari":2500,"Ġkunci":2501,"Ġjugo":2502,"ĠAn":2503,"aruda":2504,"Ġbulu":2505,"Ġtumpukan":2506,"Ġtengahnya":2507,"otong":2508,"Ġbuahnya":2509,"gelar":2510,"gelang":2511,"Ġmulei":2512,"obatan":2513,"tumbuhan":2514,"kenalkan":2515,"unggak":2516,"Ġserta":2517,"Seluang":2518,"kunang":2519,"entuh":2520,"Ġmusik":2521,"hiasan":2522,"Ġbawahnya":2523,"Ġsarana":2524,"Ġkopi":2525,"Ġkopiah":2526,"pembatas":2527,"emuanya":2528,"Ġbunyi":2529,"kumbang":2530,"antau":2531,"Ġkursi":2532,"Ġmunnei":2533,"Ġtenunan":2534,"undangan":2535,"Ġulat":2536,"Ġsendiri":2537,"Ġsenjata":2538,"usunan":2539,"Ġmembersihkan":2540,"iringi":2541,"Ġbingkainya":2542,"mereka":2543,"balai":2544,"urus":2545,"Ġpenyaro":2546,"Ġgaris":2547,"Ġpelepah":2548,"telur":2549,"Ġasap":2550,"ĠRaja":2551,"ĠRajo":2552,"ighul":2553,"masing":2554,"Ġikatan":2555,"Ġmaghing":2556,"Ġpembatas":2557,"Ġdesain":2558,"Ġtemen":2559,"Ġpulang":2560,"Ġasam":2561,"nakal":2562,"Ġkumpulan":2563,"Ġberjumlah":2564,"erjaan":2565,"Ġpayung":2566,"Ġlunjuk":2567,"Ġdipercaya":2568,"Ġkunyit":2569,"Ġumumnya":2570,"kunjungan":2571,"Ġpolos":2572,"jejalan":2573,"Ġbumbu":2574,"Ġditaruh":2575,"Ġsehingga":2576,"Ġhalus":2577,"Ġwader":2578,"Ġgegeh":2579,"Ġmemasuki":2580,"Ġngerabung":2581,"kedow":2582,"mencari":2583,"Punyeu":2584,"Ġraja":2585,"Ġbegitu":2586,"Ġbersuara":2587,"Ġrakus":2588,"Ġsirih":2589,"Ġpemandian":2590,"formasi":2591,"Baiklah":2592,"jengkol":2593,"erudo":2594,"Ġkelipatan":2595,"Ġdililit":2596,"Ġdodol":2597,"Ġsedikit":2598,"Ġittar":2599,"Ġhandak":2600,"Ġhampir":2601,"Ġperwatin":2602,"elilingi":2603,"Lar":2604,"].\"}":2605,"earn":2606,"mul":2607,"ual":2608,"injuk":2609,"Ġkom":2610,"Ġbahasa":2611,"Ġmac":2612,"Ġmej":2613,"Ġmaling":2614,"Ġlearn":2615,"Ġninjuk":2616,"Ġdanau":2617,"Ġgur":2618,"away":2619,"surat":2620,"ast":2621,"pir":2622,"Ġst":2623,"erat":2624,"Ġby":2625,"Ġne":2626,"Ġand":2627,"Ġterakhir":2628,"Ġre":2629,"rom":2630,"Ġsering":2631,"Ġkota":2632,"Ġberbeda":2633,"Ġtahun":2634,"Ġpola":2635,"ĠIngg":2636,"Ġlearning":2637,"ĠInggris":2638,"!!":2639,")/":2640,"Ay":2641,"Api":2642,"Bak":2643,"Bek":2644,"Batang":2645,"Band":2646,"Cal":2647,"Dawah":2648,"Dimana":2649,"Fau":2650,"Ghal":2651,"Garuda":2652,"Gerudo":2653,"Hah":2654,"Hari":2655,"Huh":2656,"Haha":2657,"Ijo":2658,"Itik":2659,"Iyo":2660,"Iling":2661,"Iyeu":2662,"Jam":2663,"Kampung":2664,"Kur":2665,"Keg":2666,"Kalo":2667,"Kera":2668,"Li":2669,"Lu":2670,"MA":2671,"Mat":2672,"Meng":2673,"Mettei":2674,"Na":2675,"Nama":2676,"Namo":2677,"Nikeu":2678,"Nyamuk":2679,"Pan":2680,"Pung":2681,"Si":2682,"Sy":2683,"Sum":2684,"Saso":2685,"Senang":2686,"Sikam":2687,"Tangan":2688,"Tenang":2689,"Tawon":2690,"Tanjung":2691,"Uding":2692,"Wat":2693,"apung":2694,"abul":2695,"acet":2696,"bar":2697,"bian":2698,"bidak":2699,"belum":2700,"ceng":2701,"cce":2702,"cangg":2703,"cac":2704,"cob":2705,"cangget":2706,"der":2707,"dung":2708,"dei":2709,"deu":2710,"dok":2711,"dong":2712,"denda":2713,"ebu":2714,"ebut":2715,"ebutan":2716,"gu":2717,"gal":2718,"gai":2719,"geh":2720,"gamb":2721,"gulai":2722,"ha":2723,"hil":2724,"hari":2725,"hluk":2726,"ice":2727,"ibung":2728,"iapa":2729,"ija":2730,"ibut":2731,"ju":2732,"jan":2733,"jem":2734,"jar":2735,"jeng":2736,"jik":2737,"jid":2738,"jab":2739,"jjo":2740,"jambat":2741,"jelek":2742,"jauan":2743,"kin":2744,"kesi":2745,"kat":2746,"kak":2747,"keng":2748,"kap":2749,"kir":2750,"kri":2751,"kita":2752,"kuw":2753,"kena":2754,"kata":2755,"kuku":2756,"kalau":2757,"krem":2758,"kabing":2759,"lan":2760,"lem":2761,"las":2762,"lap":2763,"lung":2764,"lay":2765,"leb":2766,"lukan":2767,"les":2768,"lalu":2769,"lubang":2770,"lalapan":2771,"mh":2772,"mau":2773,"mikan":2774,"mata":2775,"maga":2776,"mini":2777,"masak":2778,"mpulan":2779,"mban":2780,"midang":2781,"nam":2782,"nah":2783,"nangan":2784,"ota":2785,"ogam":2786,"pengan":2787,"ppul":2788,"pisang":2789,"rep":2790,"rambutan":2791,"raba":2792,"ramuan":2793,"sangg":2794,"suh":2795,"sudah":2796,"sungai":2797,"sini":2798,"segi":2799,"susunan":2800,"te":2801,"tal":2802,"tai":2803,"tau":2804,"tit":2805,"tei":2806,"teg":2807,"tangg":2808,"tong":2809,"tew":2810,"tangga":2811,"tingk":2812,"tampan":2813,"temukan":2814,"uat":2815,"upe":2816,"uapi":2817,"ubuk":2818,"ubing":2819,"va":2820,"wis":2821,"wegh":2822,"yu":2823,"yun":2824,"yul":2825,"yet":2826,"yuran":2827,"yenno":2828,"zi":2829,"£am":2830,"Ã£am":2831,"Ġ3":2832,"Ġ=":2833,"ĠW":2834,"Ġpung":2835,"Ġ.\",":2836,"Ġob":2837,"Ġakh":2838,"Ġaku":2839,"Ġakhir":2840,"Ġakibat":2841,"Ġunggak":2842,"ĠFau":2843,"Ġ\"#":2844,"andi":2845,"anem":2846,"annya":2847,"anamu":2848,"anyaman":2849,"punya":2850,"puny":2851,"purung":2852,"puran":2853,"purn":2854,"ngin":2855,"ngem":2856,"nget":2857,"ngurung":2858,"amil":2859,"aminya":2860,"amsul":2861,"ino":2862,"iny":2863,"indi":2864,"inay":2865,"indang":2866,"innei":2867,"incin":2868,"ond":2869,"ahh":2870,"ahat":2871,"ahnya":2872,"ahaso":2873,"eran":2874,"eram":2875,"ertai":2876,"Ġkah":2877,"Ġkac":2878,"Ġkapan":2879,"Ġkata":2880,"Ġkuku":2881,"Ġkamar":2882,"Ġkapas":2883,"Ġkabing":2884,"Ġkisah":2885,"Ġkolam":2886,"putus":2887,"dil":2888,"diam":2889,"diaman":2890,"dimana":2891,"sisa":2892,"siap":2893,"emur":2894,"emingg":2895,"empar":2896,"kandang":2897,"kanker":2898,"saj":2899,"satu":2900,"sarung":2901,"ouse":2902,"dondong":2903,"Ġkeh":2904,"Ġkesa":2905,"Ġkeker":2906,"Ġkehi":2907,"Ġkesini":2908,"Ġkediaman":2909,"arai":2910,"aranya":2911,"arahan":2912,"arkir":2913,"ruh":2914,"rum":2915,"rurung":2916,"atat":2917,"aturan":2918,"attik":2919,"angat":2920,"anguy":2921,"angeran":2922,"alin":2923,"alah":2924,"alem":2925,"alap":2926,"alik":2927,"alsu":2928,"asai":2929,"Ġbesi":2930,"Ġbus":2931,"Ġbit":2932,"Ġbamb":2933,"Ġbukan":2934,"Ġbahu":2935,"Ġbant":2936,"Ġbakar":2937,"Ġmik":2938,"Ġmay":2939,"Ġmis":2940,"Ġmit":2941,"Ġmara":2942,"Ġmet":2943,"Ġmain":2944,"Ġmakai":2945,"Ġmangg":2946,"Ġmudah":2947,"Ġmegh":2948,"Ġmatang":2949,"Ġmob":2950,"Ġmasak":2951,"Ġminta":2952,"Ġmider":2953,"Ġmisalnya":2954,"Ġmarga":2955,"Ġmaja":2956,"Ġmalem":2957,"stra":2958,"enal":2959,"ĠLana":2960,"ĠLama":2961,"ĠLamo":2962,"ĠLagi":2963,"ĠLangka":2964,"ĠBer":2965,"ĠBeli":2966,"ĠBahaso":2967,"erjakan":2968,"engek":2969,"enggel":2970,"Ġpi":2971,"Ġpik":2972,"Ġpet":2973,"Ġpalau":2974,"Ġpaku":2975,"Ġpiring":2976,"Ġproses":2977,"Ġpasangan":2978,"Ġpotongan":2979,"Ġparkir":2980,"Ġpangeran":2981,"Ġpalsu":2982,"Ġdid":2983,"Ġdih":2984,"Ġdisi":2985,"Ġdikan":2986,"Ġdiab":2987,"Ġdibentuk":2988,"Ġdita":2989,"Ġditer":2990,"Ġdiisi":2991,"Ġdihan":2992,"Ġdiambil":2993,"Ġditutu":2994,"Ġdipukul":2995,"Ġdire":2996,"Ġdiadakan":2997,"Ġdiiringi":2998,"Ġdiurus":2999,"Ġdikedow":3000,"Ġdingin":3001,"Ġdu":3002,"Ġdel":3003,"Ġdau":3004,"Ġdada":3005,"Ġdulu":3006,"Ġdulang":3007,"buai":3008,"buay":3009,"buho":3010,"buaya":3011,"burung":3012,"bujang":3013,"budak":3014,"bumi":3015,"bunyi":3016,"yau":3017,"Ġterj":3018,"Ġtau":3019,"Ġtep":3020,"Ġtemb":3021,"Ġtamp":3022,"Ġtiti":3023,"Ġtemu":3024,"Ġtalo":3025,"Ġtawon":3026,"Ġtalas":3027,"Ġtagen":3028,"Ġtambahan":3029,"Ġtenggel":3030,"lih":3031,"Ġsujut":3032,"Ġsantan":3033,"Ġsuluh":3034,"Ġsyarat":3035,"Ġsore":3036,"Ġsemuanya":3037,"Ġsindi":3038,"cel":3039,"cep":3040,"cebong":3041,"tuj":3042,"tut":3043,"tung":3044,"tunangan":3045,"daw":3046,"pey":3047,"pega":3048,"peti":3049,"pedang":3050,"peci":3051,"untuk":3052,"unjuk":3053,"lisah":3054,"alei":3055,"aleu":3056,"Ġac":3057,"Ġayah":3058,"usus":3059,"usul":3060,"elem":3061,"eleng":3062,"elus":3063,"elur":3064,"elep":3065,"elasan":3066,"potong":3067,"asukan":3068,"asinan":3069,"asjid":3070,"apit":3071,"appel":3072,"Ġlap":3073,"Ġlung":3074,"Ġlek":3075,"Ġleh":3076,"Ġlamb":3077,"Ġlahan":3078,"Ġlada":3079,"Ġlalat":3080,"Ġlemb":3081,"Ġlabu":3082,"Ġlebung":3083,"Ġladang":3084,"Ġlabuh":3085,"Ġlulus":3086,"Ġlogam":3087,"Ġlalap":3088,"Ġseber":3089,"Ġsepi":3090,"ike":3091,"aung":3092,"ingi":3093,"inginan":3094,"uka":3095,"ukak":3096,"Ġberapa":3097,"Ġbersan":3098,"Ġberhi":3099,"Ġberenang":3100,"Ġberger":3101,"Ġberpakaian":3102,"Ġberkunjung":3103,"Ġberist":3104,"Ġberkeli":3105,"Ġberasal":3106,"Ġberub":3107,"Ġberkumpul":3108,"Ġberarti":3109,"Ġnun":3110,"Ġnamo":3111,"Ġnup":3112,"Ġnot":3113,"Ġnaik":3114,"Ġnurun":3115,"Ġnanem":3116,"Ġil":3117,"Ġigel":3118,"Ġimam":3119,"Ġipes":3120,"Ġsaj":3121,"Ġsapu":3122,"Ġsabun":3123,"Ġsayan":3124,"Ġsaso":3125,"Ġsayuran":3126,"ajak":3127,"ajung":3128,"pag":3129,"paya":3130,"pagi":3131,"pacc":3132,"Ġmenar":3133,"Ġmenit":3134,"Ġmenutu":3135,"Ġmenenun":3136,"Ġmenutup":3137,"Ġmenolak":3138,"Ġmentah":3139,"Ġmenempel":3140,"ayar":3141,"ayang":3142,"ayarkan":3143,"iser":3144,"ith":3145,"ulem":3146,"uluk":3147,"Ġhid":3148,"Ġhom":3149,"Ġhajat":3150,"Ġhubung":3151,"Ġhuwa":3152,"Ġhamil":3153,"Ġhouse":3154,"agam":3155,"agikan":3156,"ekap":3157,"ekekh":3158,"ekelang":3159,"ila":3160,"ilu":3161,"illag":3162,"holik":3163,"Ġatap":3164,"Ġatei":3165,"Ġugh":3166,"Ġubi":3167,"Ġjem":3168,"Ġjag":3169,"Ġjim":3170,"Ġjati":3171,"Ġjenis":3172,"Ġjemmeh":3173,"Ġjumlah":3174,"Ġjantan":3175,"Ġjatuh":3176,"eto":3177,"etih":3178,"etapi":3179,"Ġwas":3180,"Ġwith":3181,"paikan":3182,"Ġger":3183,"Ġgun":3184,"Ġgul":3185,"Ġgkh":3186,"Ġganj":3187,"Ġgitar":3188,"Ġmemin":3189,"Ġmemar":3190,"Ġmembang":3191,"Ġmembun":3192,"Ġmemanggil":3193,"Ġmempunya":3194,"umbang":3195,"umbut":3196,"aweng":3197,"awik":3198,"awes":3199,"arium":3200,"oret":3201,"orok":3202,"Ġinti":3203,"Ġinformasi":3204,"Ġcup":3205,"Ġcaro":3206,"Ġcakar":3207,"Ġcawo":3208,"Ġcabai":3209,"Ġcerah":3210,"Ġcont":3211,"Ġcantik":3212,"Ġcacing":3213,"Ġchil":3214,"utkan":3215,"uten":3216,"utri":3217,"Ġperangkap":3218,"Ġpercakapan":3219,"Ġperhiasan":3220,"Ġpernah":3221,"Ġpersegi":3222,"Ġpertunangan":3223,"egen":3224,"Ġanda":3225,"Ġmengadu":3226,"Ġmengalami":3227,"Ġmengelilingi":3228,"Ġmengerjakan":3229,"Ġbesan":3230,"Ġbeband":3231,"Ġterd":3232,"Ġterasa":3233,"Ġterus":3234,"Ġterben":3235,"Ġterke":3236,"Ġterdiri":3237,"Ġterima":3238,"Ġterkena":3239,"beres":3240,"berkumpul":3241,"berdiam":3242,"ihat":3243,"irkan":3244,"irim":3245,"irahat":3246,"akaianya":3247,"Ġri":3248,"Ġrin":3249,"Ġramb":3250,"Ġratu":3251,"Ġrasan":3252,"Ġrawa":3253,"Ġrapat":3254,"Ġromb":3255,"Ġrangkai":3256,"Ġrotan":3257,"Ġrmh":3258,"Ġragam":3259,"aban":3260,"abis":3261,"abatan":3262,"imur":3263,"Ġkelaya":3264,"Ġkelaku":3265,"Ġrusak":3266,"seling":3267,"sepak":3268,"selim":3269,"anggar":3270,"anggap":3271,"anggik":3272,"Ġsing":3273,"Ġsifat":3274,"Ġsikap":3275,"Ġsilung":3276,"rikan":3277,"eppo":3278,"nying":3279,"nyesa":3280,"nyukak":3281,"Ġdipanggang":3282,"Ġtuw":3283,"Ġtupai":3284,"Ġtuba":3285,"ambak":3286,"ebar":3287,"ebingei":3288,"tanan":3289,"ujuk":3290,"Ġdigunkan":3291,"Ġdigoyang":3292,"Ġdigigit":3293,"enyik":3294,"Ġpupung":3295,"angke":3296,"angkrik":3297,"ayap":3298,"oke":3299,"Ġngurung":3300,"Ġngaring":3301,"Ġngengat":3302,"uaranya":3303,"ĠNg":3304,"uwah":3305,"uwet":3306,"Ġsekalian":3307,"Ġsekebar":3308,"adapan":3309,"ongger":3310,"ghang":3311,"ghghuk":3312,"Ġkerajat":3313,"Ġpepaya":3314,"bunga":3315,"Ġkuat":3316,"Ġkupak":3317,"Ġkuppul":3318,"Ġkughghuk":3319,"suguh":3320,"benalu":3321,"Ġdilubangi":3322,"Ġgajah":3323,"Ġbubu":3324,"Ġbubuk":3325,"Ġmeres":3326,"Ġmertua":3327,"Ġmerambat":3328,"Ġmerantau":3329,"peles":3330,"esuk":3331,"pisaan":3332,"panitia":3333,"Dijjo":3334,"Ġpandai":3335,"Ġpancing":3336,"Ġbagus":3337,"Ġbagho":3338,"Ġbagaimana":3339,"Ġmenyelesa":3340,"Ġmenyebab":3341,"Ġmenyentuh":3342,"Ġmenyuapi":3343,"Ġgelang":3344,"Ġgelap":3345,"eghem":3346,"eghal":3347,"ader":3348,"Ġmaksud":3349,"Ġmelalu":3350,"Ġmelati":3351,"Ġmeletakkan":3352,"Ġmelubangi":3353,"Ġmelanggar":3354,"Ġlidi":3355,"Ġliat":3356,"Ġlingk":3357,"Ġlirik":3358,"mengangkat":3359,"kec":3360,"kesa":3361,"keci":3362,"memar":3363,"membuat":3364,"meminta":3365,"Ġkalung":3366,"Ġkalajengking":3367,"Ġpengikat":3368,"Ġpengend":3369,"Ġpengarakan":3370,"Ġpenghorm":3371,"Ġpenganggik":3372,"ĠSudah":3373,"ĠSug":3374,"ĠSekam":3375,"ĠSMA":3376,"ĠSiapa":3377,"ĠSubing":3378,"ĠSamsul":3379,"ĠSemingg":3380,"Ġcaluk":3381,"kutut":3382,"Ġpadai":3383,"Ġtipo":3384,"Ġtiyuh":3385,"Ġtigeh":3386,"Ġbalik":3387,"Ġkembang":3388,"Ġkemagh":3389,"Ġkedalam":3390,"Ġpembuka":3391,"Ġpemanggang":3392,"Ġpemimpin":3393,"Ġpemotongan":3394,"Ġpemberitahuan":3395,"Ġpembuatan":3396,"Ġpemakaianya":3397,"Ġnyelesa":3398,"Ġnyattik":3399,"Ġbelas":3400,"Ġbelut":3401,"Ġmanusia":3402,"Ġmandei":3403,"Ġwant":3404,"aghi":3405,"aghih":3406,"Ġghabai":3407,"Ġdisulam":3408,"Ġdisertai":3409,"Ġpelajaran":3410,"Ġsebam":3411,"Ġsebatas":3412,"Ġmenggulung":3413,"ĠKak":3414,"ĠKamu":3415,"ĠKabar":3416,"ĠKalau":3417,"ĠKholik":3418,"Ġisteri":3419,"acah":3420,"acun":3421,"Ġpenu":3422,"Ġpenangkap":3423,"Ġpenutup":3424,"Ġtanda":3425,"Ġjuyeu":3426,"sarang":3427,"penj":3428,"penet":3429,"Ġdiketahui":3430,"Ġdikattip":3431,"Ġsutera":3432,"esai":3433,"jaga":3434,"mend":3435,"Ġlebar":3436,"Ġlebat":3437,"Ġujian":3438,"ĠApi":3439,"Ġsuara":3440,"Ġsuaminya":3441,"taro":3442,"tarik":3443,"Ġkarung":3444,"Ġsepertinya":3445,"igho":3446,"igeh":3447,"ĠTidak":3448,"ĠTengah":3449,"ĠTabik":3450,"ĠTawon":3451,"ĠTawik":3452,"ĠTimur":3453,"Ġselesai":3454,"upas":3455,"andei":3456,"Ġbulan":3457,"Ġsetengah":3458,"etteu":3459,"ĠMak":3460,"ĠMau":3461,"ĠMingg":3462,"ĠManuk":3463,"ĠMasjid":3464,"Ġdibelah":3465,"Ġdibakar":3466,"Ġdibayarkan":3467,"Ġdibagikan":3468,"sela":3469,"Ġkampungmu":3470,"Ġmakannya":3471,"Ġayaman":3472,"ikahi":3473,"Ġberwana":3474,"Ġumbul":3475,"tercemar":3476,"ĠPR":3477,"ĠPun":3478,"ĠPuan":3479,"ĠPutri":3480,"geleg":3481,"isak":3482,"jadian":3483,"obat":3484,"Ġbujur":3485,"tumpuk":3486,"Ġmembeli":3487,"kendi":3488,"unggang":3489,"Ġserat":3490,"bagaimana":3491,"cako":3492,"kuning":3493,"ĠHaga":3494,"Ġharam":3495,"Ġharapan":3496,"..!!":3497,"gasana":3498,"pemberian":3499,"pemimpin":3500,"pemberitahuan":3501,"ucc":3502,"uco":3503,"ĠGung":3504,"ĠGina":3505,"ĠGema":3506,"Ġsarapan":3507,"Ġmendirikan":3508,"Ġharian":3509,"kemej":3510,"kemutik":3511,"Ġkodok":3512,"inyawan":3513,"Ġkhusus":3514,"Ġkeringat":3515,"Ġdinnei":3516,"Ġberbei":3517,"Ġberbicara":3518,"Nyiny":3519,"serah":3520,"Ġfo":3521,"Ġfor":3522,"Ġflu":3523,"antak":3524,"Ġkibau":3525,"Ġkiruk":3526,"Ġkura":3527,"Ġkena":3528,"Ġkenal":3529,"Ġkenahhan":3530,"bulu":3531,"lever":3532,"panggung":3533,"Ġular":3534,"Ġulay":3535,"ngedi":3536,"ngebu":3537,"Ġketua":3538,"Ġpinang":3539,"Ġpintar":3540,"Ġditangguk":3541,"Ġditempel":3542,"Ġsemut":3543,"Ġsempurn":3544,"Ġmencari":3545,"Ġmencuri":3546,"Ġmemberikan":3547,"Ġbingung":3548,"Ġtey":3549,"Ġmenganyam":3550,"meraba":3551,"Kelas":3552,"Kelabai":3553,"Kelemat":3554,"belat":3555,"pakah":3556,"ĠJawa":3557,"ĠJamal":3558,"Ġalis":3559,"Ġalhamdulillah":3560,"Ġgaring":3561,"Ġmemperoleh":3562,"Ġmemperkenalkan":3563,"Ġmempertemukan":3564,"Ġtertinggi":3565,"odel":3566,"Keong":3567,"Kepompong":3568,"beberapa":3569,"Ġislam":3570,"kukur":3571,"pineng":3572,"Ġasal":3573,"Ġenam":3574,"Ġbatin":3575,"Ġbatik":3576,"Ġbateu":3577,"Ġdijapit":3578,"Ġdijambak":3579,"Ġsembah":3580,"inggalkan":3581,"Ġkanannya":3582,"Buay":3583,"Buho":3584,"Buaya":3585,"remet":3586,"tabah":3587,"Ġmacet":3588,"Ġtempurung":3589,"Ġlampu":3590,"Ġlambang":3591,"Ġmenjalin":3592,"entangkan":3593,"Ġngenul":3594,"elihara":3595,"Ġtunggal":3596,"Ġcek":3597,"batik":3598,"icit":3599,"kibau":3600,"kurang":3601,"menyusun":3602,"sekarang":3603,"sudan":3604,"uguk":3605,"ugur":3606,"Ġkumbang":3607,"Ġberjalan":3608,"Ġmeja":3609,"ĠBudi":3610,"Ġpagar":3611,"Ġpagun":3612,"Ġtarikan":3613,"Ġsegar":3614,"Ġmenyampaikan":3615,"menggunakan":3616,"Ġkunyir":3617,"Berei":3618,"Tipo":3619,"Tiyan":3620,"adangan":3621,"bayangan":3622,"beduwo":3623,"capkan":3624,"kepala":3625,"lakinya":3626,"melepaskan":3627,"Ġanggur":3628,"Ġanggota":3629,"Ġbekerja":3630,"Ġbekuto":3631,"Ġbumi":3632,"Ġditarik":3633,"Ġdll":3634,"Ġdlm":3635,"burkan":3636,"Ġsunat":3637,"Ġsanggan":3638,"Ġsanggup":3639,"ikuti":3640,"Ġnilem":3641,"Ġnilai":3642,"ungkup":3643,"Ġwadah":3644,"Ġmemasukkan":3645,"ombrang":3646,"Ġkemarin":3647,"Ġkemarau":3648,"Diantara":3649,"Diantaro":3650,"Tano":3651,"bilas":3652,"jamur":3653,"kulak":3654,"menganai":3655,"mengantar":3656,"Ġ10":3657,"ĠYP":3658,"ĠYasinan":3659,"Ġvillag":3660,"Ġingin":3661,"Ġorg":3662,"Ġornam":3663,"Ġkultum":3664,"Ġkepiting":3665,"ĠBurhan":3666,"Ġdisebar":3667,"Ġditandai":3668,"Ġdihias":3669,"Ġdihiasi":3670,"Ġtakut":3671,"Ġtajam":3672,"unyai":3673,"ukhuk":3674,"Ġbertumpu":3675,"Ġbertumpal":3676,"Ġnyapah":3677,"Ġwajan":3678,"Ġrempah":3679,"Ġrencana":3680,"Ġrencanamu":3681,"sesapuran":3682,"Ġtujuh":3683,"Ġtujuan":3684,"Ġngebeli":3685,"Ġbibit":3686,"Ġbibir":3687,"ĠGunung":3688,"ĠGuntur":3689,"Ġtelubus":3690,"calak":3691,"eringkan":3692,"Dikedow":3693,"Leluppek":3694,"Lebah":3695,"Percakapan":3696,"berjalan":3697,"besek":3698,"curkan":3699,"guna":3700,"letok":3701,"sangko":3702,"wakilan":3703,"ĠUnila":3704,"ngelapan":3705,"Ġkamah":3706,"Ġkanduk":3707,"Ġkotak":3708,"Ġmasakan":3709,"Ġmeddal":3710,"Ġpekerjaan":3711,"Ġpegal":3712,"Ġpanggung":3713,"Ġpaccah":3714,"Ġtikus":3715,"Ġtombak":3716,"Ġtabur":3717,"Ġtingkat":3718,"Ġsangkar":3719,"Ġseghem":3720,"ukurlah":3721,"Ġberhadapan":3722,"Ġirisan":3723,"Ġmenanam":3724,"Ġmenerima":3725,"Ġmenumpuk":3726,"Ġmenentukan":3727,"Ġurutan":3728,"Ġjengaw":3729,"etiap":3730,"Ġcemburu":3731,"Ġmengusir":3732,"Ġmengawinkan":3733,"Ġterpencil":3734,"ĠNyenyik":3735,"pengajin":3736,"ĠAndi":3737,"Ġkotabumi":3738,"Bekuh":3739,"Bandar":3740,"Caluk":3741,"Hahaha":3742,"Kura":3743,"Kegho":3744,"Panas":3745,"Pungeu":3746,"Syukurlah":3747,"cobek":3748,"jelekkan":3749,"kesimpulan":3750,"lebam":3751,"miniatur":3752,"upei":3753,"Ġpungeu":3754,"Ġobjek":3755,"Ġakuarium":3756,"ĠFauzi":3757,"Ġkekerabatan":3758,"Ġkehijauan":3759,"Ġbittek":3760,"Ġbambit":3761,"Ġmayyau":3762,"Ġmiskin":3763,"Ġmeghanai":3764,"Ġmobil":3765,"ĠLangkapura":3766,"ĠBeliuk":3767,"Ġdiabet":3768,"Ġditerpa":3769,"Ġdihancurkan":3770,"Ġdirebus":3771,"Ġtepat":3772,"Ġtampak":3773,"Ġsindiran":3774,"petikan":3775,"Ġleher":3776,"Ġlambik":3777,"Ġbersantan":3778,"Ġberhiaskan":3779,"Ġbergerigi":3780,"Ġberkelipatan":3781,"Ġberubah":3782,"Ġnuppang":3783,"paccung":3784,"Ġmenutupi":3785,"Ġhidung":3786,"Ġhome":3787,"Ġhubungan":3788,"Ġjimat":3789,"Ġganjil":3790,"Ġmembangun":3791,"Ġmembunuh":3792,"Ġmempunyai":3793,"Ġcuplukan":3794,"Ġcontoh":3795,"Ġchild":3796,"Ġbebandung":3797,"Ġterbentur":3798,"Ġrombongan":3799,"Ġrangkaian":3800,"Ġkelayapan":3801,"selingkuh":3802,"sepakatan":3803,"selimut":3804,"onggeret":3805,"Ġmeresmikan":3806,"Ġmenyelesaikan":3807,"Ġmenyebabkan":3808,"Ġmelalui":3809,"Ġpengendur":3810,"Ġpenghormatan":3811,"ĠSugih":3812,"Ġkemaghau":3813,"tercemarnya":3814,"Ġditempelkan":3815,"Ġsempurna":3816,"Kelemattung":3817,"Ġvillage":3818,"Ġornamen":3819,"ect":3820,"ma":3821,"nuwo":3822,"ppe":3823,"qu":3824,"ine":3825,"Ġkulam":3826,"Ġkaway":3827,"dono":3828,"undono":3829,"Ġlang":3830,"Ġnuw":3831,"Ġim":3832,"Ġjol":3833,"uttik":3834,"tiyan":3835,"Ġmuppe":3836,"Ġlitt":3837,"Ġliyew":3838,"Ġcalak":3839,"Ġnyuwak":3840,"Ġdisuttik":3841,"Ġmulang":3842,"Ġserundono":3843,"Ġkanen":3844,"Ġdinei":3845,"ibuno":3846,"Ġlawet":3847,"Ġof":3848,"mulei":3849,"Ġmejeng":3850,"Ġgureu":3851,"Ġneen":3852,"odels":3853,"Ġnuwono":3854,"Ġjolma":3855,"Ġmuppeh":3856,"Ġlittek":3857,"cum":3858,"dam":3859,"ef":3860,"hine":3861,"iv":3862,"ici":3863,"ming":3864,"pp":3865,"ts":3866,"Ġam":3867,"Ġeng":3868,"puter":3869,"ate":3870,"atis":3871,"Ġbr":3872,"Ġmodels":3873,"stem":3874,"Ġdo":3875,"Ġso":3876,"uni":3877,"por":3878,"Ġberkem":3879,"ents":3880,"Ġcom":3881,"Ġsistem":3882,"eling":3883,"Ġare":3884,"edu":3885,"asarkan":3886,"Ġfr":3887,"Ġfrom":3888,"Kec":3889,"Ġcepat":3890,"Ġberdasarkan":3891,"..!!\",":3892,"Ġberkembang":3893,"'s":3894,").":3895,"Ap":3896,"As":3897,"Ang":3898,"Ayam":3899,"Aku":3900,"Angk":3901,"Anak":3902,"Anying":3903,"Apakah":3904,"Ban":3905,"Ben":3906,"Bus":3907,"Baj":3908,"Bet":3909,"Basi":3910,"Bes":3911,"Bad":3912,"Baru":3913,"Buku":3914,"Banj":3915,"Bunga":3916,"Bagai":3917,"Bacc":3918,"Baseh":3919,"Basah":3920,"Bukeu":3921,"Bulus":3922,"Baung":3923,"Buwet":3924,"Cilik":3925,"Cacing":3926,"Capung":3927,"Cincin":3928,"Daro":3929,"Dekat":3930,"Deda":3931,"Dinnei":3932,"Eh":3933,"Em":3934,"Egh":3935,"Elang":3936,"Gh":3937,"Gar":3938,"Gud":3939,"Gagh":3940,"Gamp":3941,"Ghi":3942,"Geleng":3943,"Har":3944,"Haga":3945,"Hormat":3946,"Ia":3947,"Iy":3948,"Itu":3949,"Ibung":3950,"Iteu":3951,"Ipes":3952,"Itew":3953,"Jak":3954,"Juk":3955,"Jangkrik":3956,"Ki":3957,"Kan":3958,"Ker":3959,"Kat":3960,"Kal":3961,"Ken":3962,"Kit":3963,"Ket":3964,"Kut":3965,"Kab":3966,"Kaki":3967,"Kita":3968,"Kamu":3969,"Kes":3970,"Kayu":3971,"Kej":3972,"Kutu":3973,"Kami":3974,"Kuduk":3975,"Kuy":3976,"Kod":3977,"Keri":3978,"Katei":3979,"Kamal":3980,"Kalian":3981,"Kayeu":3982,"Kedow":3983,"Kumbang":3984,"Lem":3985,"Lang":3986,"Lai":3987,"Lagi":3988,"Lapah":3989,"Lemat":3990,"Lihat":3991,"Leppo":3992,"Ligeh":3993,"Ma":3994,"Mon":3995,"Mer":3996,"Mau":3997,"Mana":3998,"Magh":3999,"Matang":4000,"Mett":4001,"Matei":4002,"Minjak":4003,"Manuk":4004,"Mekk":4005,"Mandi":4006,"Melem":4007,"Mandei":4008,"Nam":4009,"Nik":4010,"Nil":4011,"Ngaw":4012,"Nuw":4013,"Ngen":4014,"Ok":4015,"Pus":4016,"Pek":4017,"Palau":4018,"Panj":4019,"Pandai":4020,"Putik":4021,"Paghek":4022,"Pacet":4023,"Pelus":4024,"Pate":4025,"Rem":4026,"Rum":4027,"Se":4028,"Sr":4029,"Sem":4030,"Sai":4031,"Sing":4032,"Sek":4033,"Salam":4034,"Sep":4035,"Seb":4036,"Seghem":4037,"Tu":4038,"Tin":4039,"Tal":4040,"Teng":4041,"Tun":4042,"Taj":4043,"Tom":4044,"Tabu":4045,"Tukuk":4046,"Tekh":4047,"Tagen":4048,"Tawis":4049,"Telur":4050,"Tetapi":4051,"Tawes":4052,"Tonggeret":4053,"Ur":4054,"Udang":4055,"Ulat":4056,"Ungg":4057,"Ulew":4058,"Umban":4059,"Uwegh":4060,"Ughang":4061,"Wa":4062,"Wader":4063,"Ya":4064,"],":4065,"acara":4066,"apur":4067,"abut":4068,"abus":4069,"abuhan":4070,"apet":4071,"bh":4072,"bin":4073,"bah":4074,"bem":4075,"besi":4076,"bai":4077,"bas":4078,"baj":4079,"bis":4080,"bara":4081,"bol":4082,"bih":4083,"bab":4084,"beu":4085,"badi":4086,"bep":4087,"bana":4088,"baya":4089,"batu":4090,"barang":4091,"bilik":4092,"batas":4093,"bongan":4094,"babang":4095,"belih":4096,"bolak":4097,"barat":4098,"ca":4099,"ch":4100,"cah":4101,"cang":4102,"cen":4103,"cus":4104,"cung":4105,"cul":4106,"cho":4107,"cari":4108,"cangk":4109,"cengk":4110,"cand":4111,"cabang":4112,"cuci":4113,"cucuk":4114,"cabuh":4115,"cantik":4116,"cuwet":4117,"dem":4118,"den":4119,"del":4120,"daki":4121,"dahan":4122,"duran":4123,"ded":4124,"dend":4125,"doa":4126,"delan":4127,"djek":4128,"dinding":4129,"dinnei":4130,"debingei":4131,"dangke":4132,"eat":4133,"eal":4134,"eun":4135,"etuho":4136,"ebang":4137,"eep":4138,"ecil":4139,"epadun":4140,"esat":4141,"epuh":4142,"eukeu":4143,"edondong":4144,"ecako":4145,"ecus":4146,"fir":4147,"ftar":4148,"gan":4149,"gat":4150,"gang":4151,"ging":4152,"gis":4153,"gho":4154,"get":4155,"gum":4156,"gari":4157,"gor":4158,"gir":4159,"gud":4160,"guj":4161,"gukan":4162,"ges":4163,"gilan":4164,"ged":4165,"gig":4166,"gata":4167,"gantung":4168,"gakh":4169,"guy":4170,"galang":4171,"gulung":4172,"gub":4173,"gigi":4174,"garakan":4175,"gindang":4176,"geghal":4177,"guguk":4178,"hy":4179,"hai":4180,"hik":4181,"huk":4182,"het":4183,"hei":4184,"hep":4185,"hana":4186,"hes":4187,"hantu":4188,"hegh":4189,"hamp":4190,"hono":4191,"hasil":4192,"hajat":4193,"huwa":4194,"iya":4195,"iding":4196,"idik":4197,"ijuk":4198,"ibul":4199,"icc":4200,"iyang":4201,"ipes":4202,"ijan":4203,"ilih":4204,"ibarat":4205,"jin":4206,"jat":4207,"jai":4208,"jas":4209,"jaj":4210,"jakan":4211,"jut":4212,"jir":4213,"juh":4214,"jangan":4215,"jemb":4216,"jamo":4217,"jepan":4218,"jarang":4219,"jup":4220,"jantung":4221,"jaling":4222,"jalo":4223,"julai":4224,"jegkh":4225,"jaring":4226,"ject":4227,"kah":4228,"kampung":4229,"kai":4230,"king":4231,"kaj":4232,"kay":4233,"kit":4234,"kent":4235,"keu":4236,"kuar":4237,"kac":4238,"kelum":4239,"kot":4240,"kakh":4241,"keluar":4242,"kkuk":4243,"kabang":4244,"kegkh":4245,"karkan":4246,"kegi":4247,"kolam":4248,"kÃ£am":4249,"kasai":4250,"kaghih":4251,"kinyawan":4252,"lh":4253,"ls":4254,"lin":4255,"len":4256,"leng":4257,"lun":4258,"lus":4259,"lul":4260,"lain":4261,"lum":4262,"lari":4263,"lakai":4264,"lok":4265,"lasi":4266,"lalat":4267,"lelah":4268,"lamun":4269,"lengk":4270,"lot":4271,"luc":4272,"luy":4273,"letak":4274,"laba":4275,"lagai":4276,"lawang":4277,"ladang":4278,"landai":4279,"lasih":4280,"lorong":4281,"lalik":4282,"lekekh":4283,"lugur":4284,"mput":4285,"mal":4286,"muk":4287,"mis":4288,"mag":4289,"mbang":4290,"meu":4291,"malam":4292,"muw":4293,"mukan":4294,"meli":4295,"mudah":4296,"mew":4297,"mes":4298,"melah":4299,"med":4300,"matang":4301,"mohon":4302,"mungg":4303,"milik":4304,"mbing":4305,"mego":4306,"minta":4307,"megkh":4308,"malang":4309,"malas":4310,"mider":4311,"misalnya":4312,"mighul":4313,"muaranya":4314,"mandei":4315,"mepadun":4316,"na":4317,"ner":4318,"neng":4319,"nas":4320,"nuk":4321,"nil":4322,"nding":4323,"nanti":4324,"nanj":4325,"neri":4326,"nawo":4327,"nunas":4328,"naseh":4329,"nurun":4330,"negei":4331,"nanguy":4332,"nuluk":4333,"nunggang":4334,"oda":4335,"obang":4336,"opi":4337,"pr":4338,"pasa":4339,"perj":4340,"pis":4341,"pit":4342,"pil":4343,"pim":4344,"panya":4345,"pangan":4346,"palat":4347,"pasar":4348,"paman":4349,"pinan":4350,"ppek":4351,"ppah":4352,"pisan":4353,"pasangan":4354,"pisah":4355,"rin":4356,"rasa":4357,"rai":4358,"rap":4359,"rit":4360,"rek":4361,"rid":4362,"rew":4363,"ringg":4364,"res":4365,"rawa":4366,"rampai":4367,"rinya":4368,"remu":4369,"reda":4370,"rambat":4371,"rebung":4372,"ramai":4373,"renc":4374,"rokok":4375,"rayap":4376,"ratis":4377,"sam":4378,"sin":4379,"sung":4380,"sei":4381,"sorang":4382,"suw":4383,"song":4384,"sangan":4385,"sett":4386,"samp":4387,"suku":4388,"senda":4389,"sonal":4390,"sinya":4391,"senang":4392,"sambil":4393,"srik":4394,"segkh":4395,"sanggang":4396,"sanggagh":4397,"sungk":4398,"syarat":4399,"sangi":4400,"sangat":4401,"suka":4402,"seto":4403,"suten":4404,"seghem":4405,"setiap":4406,"to":4407,"ten":4408,"tak":4409,"teng":4410,"taj":4411,"til":4412,"tnya":4413,"teh":4414,"tir":4415,"tamb":4416,"teb":4417,"tama":4418,"tom":4419,"tegh":4420,"titi":4421,"temu":4422,"tokoh":4423,"tasak":4424,"tawon":4425,"tolak":4426,"tayan":4427,"tangkai":4428,"tinggi":4429,"tesan":4430,"tekan":4431,"this":4432,"timang":4433,"tambah":4434,"taduk":4435,"tappel":4436,"thy":4437,"udi":4438,"upung":4439,"utuk":4440,"uag":4441,"ubuh":4442,"uagh":4443,"uding":4444,"uaskan":4445,"ubus":4446,"usak":4447,"upong":4448,"uburkan":4449,"ven":4450,"veh":4451,"we":4452,"wi":4453,"wal":4454,"wit":4455,"wir":4456,"wangan":4457,"wad":4458,"wagh":4459,"wegkh":4460,"wakak":4461,"waring":4462,"wagkh":4463,"wawis":4464,"you":4465,"yen":4466,"yung":4467,"yit":4468,"yek":4469,"yikan":4470,"yukuran":4471,"yalah":4472,"zan":4473,"zah":4474,"zal":4475,"zont":4476,"Ġ)":4477,"Ġ.":4478,"Ġ:":4479,"Ġus":4480,"Ġel":4481,"Ġ.\"}":4482,"Ġara":4483,"Ġur":4484,"Ġgawi":4485,"Ġom":4486,"Ġoh":4487,"Ġcepalo":4488,"Ġangkat":4489,"Ġingk":4490,"Ġikut":4491,"Ġedi":4492,"Ġeat":4493,"Ġzal":4494,"ano":4495,"anin":4496,"anat":4497,"anow":4498,"andun":4499,"anci":4500,"pui":4501,"pupu":4502,"pupung":4503,"pusi":4504,"pukh":4505,"puman":4506,"pubo":4507,"puppuk":4508,"puwak":4509,"pubian":4510,"pupp":4511,"puwegkh":4512,"ngo":4513,"ngak":4514,"ngit":4515,"ngek":4516,"ngud":4517,"ngangg":4518,"ngamb":4519,"ngeli":4520,"ngelah":4521,"ngegh":4522,"nged":4523,"ngej":4524,"nguku":4525,"ngend":4526,"ngulang":4527,"nggak":4528,"ngaring":4529,"nginai":4530,"ngandang":4531,"ngakuk":4532,"ngasei":4533,"ngayak":4534,"ngajung":4535,"ngorok":4536,"nguten":4537,"ngucc":4538,"ngantak":4539,"nguguk":4540,"amkan":4541,"amuk":4542,"amara":4543,"amur":4544,"amet":4545,"amnya":4546,"ameh":4547,"amikan":4548,"amakaian":4549,"aminan":4550,"amarah":4551,"ammat":4552,"inak":4553,"inyak":4554,"inasi":4555,"intar":4556,"indai":4557,"indik":4558,"incing":4559,"inakh":4560,"induk":4561,"indah":4562,"inagkh":4563,"indih":4564,"indar":4565,"informasi":4566,"oni":4567,"onjo":4568,"onoh":4569,"onku":4570,"onmu":4571,"onigh":4572,"onsum":4573,"onfir":4574,"aham":4575,"ahukan":4576,"ahhat":4577,"ahadiri":4578,"ahmi":4579,"ero":4580,"erem":4581,"erang":4582,"erai":4583,"erung":4584,"eril":4585,"erti":4586,"eruh":4587,"ered":4588,"erbal":4589,"ercakapan":4590,"eragan":4591,"erangke":4592,"Ġkap":4593,"Ġkik":4594,"Ġkakan":4595,"Ġkut":4596,"Ġkaya":4597,"Ġkayah":4598,"Ġkarna":4599,"Ġkami":4600,"Ġkasar":4601,"Ġkuduk":4602,"Ġkatei":4603,"Ġkawai":4604,"Ġkaf":4605,"Ġkerja":4606,"Ġkawil":4607,"Ġkagkh":4608,"Ġkamal":4609,"Ġkerjaan":4610,"Ġkabul":4611,"Ġkoret":4612,"Ġkaban":4613,"Ġkinyawan":4614,"Ġkukhuk":4615,"Ġklasi":4616,"putan":4617,"putra":4618,"dia":4619,"dibag":4620,"diundang":4621,"diunggak":4622,"dikedow":4623,"punggal":4624,"siw":4625,"sikan":4626,"siang":4627,"sieg":4628,"sikh":4629,"sigkh":4630,"siko":4631,"singkong":4632,"sifat":4633,"sigai":4634,"siden":4635,"emam":4636,"emun":4637,"emik":4638,"emet":4639,"emok":4640,"emes":4641,"embuh":4642,"embus":4643,"emne":4644,"emburkan":4645,"kanduk":4646,"kanjat":4647,"sai":4648,"saw":4649,"sapu":4650,"sakan":4651,"sabung":4652,"saran":4653,"sapur":4654,"sabuk":4655,"saling":4656,"saso":4657,"sabak":4658,"sako":4659,"saudara":4660,"salak":4661,"sawan":4662,"sadeu":4663,"sastra":4664,"sagata":4665,"sayung":4666,"esilat":4667,"esilew":4668,"donan":4669,"Ġkeber":4670,"Ġketi":4671,"Ġkeempat":4672,"Ġkepan":4673,"Ġkekh":4674,"Ġketer":4675,"Ġkeair":4676,"Ġketempat":4677,"Ġkegi":4678,"Ġkebak":4679,"Ġkearah":4680,"Ġkepenyimbang":4681,"Ġkepin":4682,"Ġkeadaan":4683,"Ġketidak":4684,"Ġkesul":4685,"Ġkepompong":4686,"Ġkecebong":4687,"Ġkeinginan":4688,"Ġkekuning":4689,"Ġkesepakatan":4690,"Ġkekkuk":4691,"aras":4692,"aruk":4693,"aris":4694,"arek":4695,"arum":4696,"arenakan":4697,"ruan":4698,"ruang":4699,"rudat":4700,"rutik":4701,"ruwah":4702,"ruwat":4703,"atkan":4704,"atal":4705,"aten":4706,"atap":4707,"atuk":4708,"attuk":4709,"atek":4710,"ataki":4711,"atangan":4712,"attur":4713,"atteu":4714,"atagkh":4715,"attek":4716,"angkan":4717,"angsa":4718,"angang":4719,"angas":4720,"angis":4721,"angnya":4722,"angep":4723,"aler":4724,"alen":4725,"alai":4726,"alukan":4727,"alke":4728,"alaku":4729,"alayak":4730,"alutkan":4731,"asad":4732,"asapi":4733,"asaikan":4734,"Ġban":4735,"Ġbak":4736,"Ġberjem":4737,"Ġbai":4738,"Ġbaj":4739,"Ġbis":4740,"Ġbara":4741,"Ġbent":4742,"Ġbol":4743,"Ġbut":4744,"Ġboleh":4745,"Ġbong":4746,"Ġbantu":4747,"Ġbelah":4748,"Ġbengk":4749,"Ġbuku":4750,"Ġbser":4751,"Ġbabu":4752,"Ġblam":4753,"Ġbintang":4754,"Ġblo":4755,"Ġbapak":4756,"Ġbukeu":4757,"Ġbuto":4758,"Ġbidang":4759,"Ġbilu":4760,"Ġblum":4761,"Ġmag":4762,"Ġmek":4763,"Ġmur":4764,"Ġmangk":4765,"Ġmeli":4766,"Ġmantu":4767,"Ġmalu":4768,"Ġmett":4769,"Ġmot":4770,"Ġmata":4771,"Ġmisa":4772,"Ġmilik":4773,"Ġmarah":4774,"Ġmiring":4775,"ĠmÃ¢":4776,"Ġmori":4777,"Ġmighul":4778,"Ġmija":4779,"Ġmond":4780,"Ġmahh":4781,"Ġminyak":4782,"stik":4783,"enai":4784,"enas":4785,"enei":4786,"endondong":4787,"ĠLas":4788,"ĠLap":4789,"ĠLamun":4790,"ĠLuwah":4791,"ĠLigeh":4792,"ĠLobang":4793,"ĠLaler":4794,"akah":4795,"akkan":4796,"akau":4797,"akoh":4798,"akaran":4799,"akses":4800,"akutan":4801,"akkul":4802,"akenan":4803,"aksakan":4804,"ĠBanyak":4805,"ĠBeru":4806,"ĠBulai":4807,"ĠBarat":4808,"ĠBaung":4809,"struasi":4810,"Ini":4811,"Ino":4812,"Inei":4813,"Indik":4814,"Induk":4815,"ĠIno":4816,"engpung":4817,"engkan":4818,"engal":4819,"engor":4820,"englay":4821,"ĠOh":4822,"Ġpas":4823,"Ġpau":4824,"Ġpil":4825,"Ġpita":4826,"Ġpasi":4827,"Ġpangan":4828,"Ġpalu":4829,"Ġpitu":4830,"Ġpetak":4831,"Ġpangkat":4832,"Ġpigh":4833,"Ġpanggang":4834,"Ġpist":4835,"Ġpokok":4836,"Ġpla":4837,"Ġpaghek":4838,"Ġpaghei":4839,"Ġpotong":4840,"Ġpast":4841,"Ġpacet":4842,"Ġpond":4843,"Ġpahh":4844,"Ġpaleu":4845,"Ġpigho":4846,"Ġpelihara":4847,"Ġpicit":4848,"Ġpsangan":4849,"Ġpamakaian":4850,"Ġpaham":4851,"Ġpesilat":4852,"Ġdipe":4853,"Ġdiale":4854,"Ġdias":4855,"Ġdiul":4856,"Ġdiyak":4857,"Ġdiro":4858,"Ġdiling":4859,"Ġdiolah":4860,"Ġdimas":4861,"Ġdiundang":4862,"Ġdiatas":4863,"Ġdiduk":4864,"Ġdisak":4865,"Ġdiangkat":4866,"Ġdiway":4867,"Ġdidapat":4868,"Ġdialami":4869,"Ġdiduduk":4870,"Ġdihar":4871,"Ġdiakuk":4872,"Ġdihorm":4873,"Ġdisaj":4874,"Ġdicel":4875,"Ġdituj":4876,"Ġdipotong":4877,"Ġdianggap":4878,"Ġdisuguh":4879,"Ġditumpuk":4880,"Ġdiremet":4881,"Ġdiikuti":4882,"Ġdiibarat":4883,"Ġdiasapi":4884,"Ġdek":4885,"Ġdeh":4886,"Ġdud":4887,"Ġdaki":4888,"Ġdahan":4889,"Ġded":4890,"Ġdatang":4891,"Ġdpt":4892,"Ġdata":4893,"Ġdaro":4894,"Ġdarah":4895,"Ġdusun":4896,"Ġdebu":4897,"Ġdemam":4898,"bukan":4899,"buang":4900,"bubung":4901,"buro":4902,"buran":4903,"bubuk":4904,"bujuk":4905,"bughuk":4906,"buyah":4907,"bumban":4908,"bugis":4909,"bumbang":4910,"buwagkh":4911,"yapu":4912,"yagh":4913,"yasudan":4914,"Ġtk":4915,"Ġtas":4916,"Ġtuk":4917,"Ġtengan":4918,"Ġtim":4919,"Ġtud":4920,"Ġtalam":4921,"Ġtangg":4922,"Ġtong":4923,"Ġtad":4924,"Ġthat":4925,"Ġted":4926,"Ġtradi":4927,"Ġtapi":4928,"Ġtahu":4929,"Ġthi":4930,"Ġtabik":4931,"Ġtinggal":4932,"Ġtampan":4933,"Ġtaji":4934,"Ġtulung":4935,"Ġtolak":4936,"Ġtangkai":4937,"Ġtinggi":4938,"Ġthis":4939,"Ġtawis":4940,"Ġtawes":4941,"Ġteling":4942,"Ġtabuhan":4943,"Ġthei":4944,"Ġtindih":4945,"Ġtonigh":4946,"Ġtatteu":4947,"Ġtangep":4948,"lir":4949,"lidi":4950,"litan":4951,"lipan":4952,"liwa":4953,"lidah":4954,"lipet":4955,"lipkan":4956,"lipey":4957,"Ġsul":4958,"Ġsho":4959,"Ġsur":4960,"Ġsand":4961,"Ġsulam":4962,"Ġsengat":4963,"Ġsentuh":4964,"Ġsusunan":4965,"Ġsuaranya":4966,"Ġsungkup":4967,"Ġscho":4968,"Ġsyukuran":4969,"Ġsesilew":4970,"Ġsengal":4971,"cek":4972,"cekel":4973,"cecangg":4974,"celih":4975,"cegukan":4976,"tul":4977,"tuan":4978,"tuli":4979,"tulah":4980,"tungk":4981,"tubo":4982,"turunan":4983,"tuyun":4984,"tuhet":4985,"das":4986,"dau":4987,"dadak":4988,"dawa":4989,"dayi":4990,"daging":4991,"pepung":4992,"pesu":4993,"pedak":4994,"pedah":4995,"pepir":4996,"Ġyou":4997,"Ġyun":4998,"uno":4999,"unan":5000,"unat":5001,"unik":5002,"untik":5003,"uncing":5004,"unjik":5005,"unduran":5006,"unyek":5007,"aikan":5008,"Ġapo":5009,"Ġadu":5010,"Ġapakah":5011,"Ġadjek":5012,"Ġazan":5013,"Ġapui":5014,"Ġadonan":5015,"usuk":5016,"usui":5017,"uskri":5018,"ele":5019,"elaj":5020,"elaw":5021,"elaran":5022,"elompok":5023,"ellem":5024,"elupas":5025,"elungkup":5026,"ellen":5027,"elasaikan":5028,"pol":5029,"kambing":5030,"asen":5031,"asahkan":5032,"asana":5033,"aske":5034,"asyarak":5035,"asso":5036,"apkan":5037,"apeng":5038,"apik":5039,"Ġlas":5040,"Ġlaj":5041,"Ġlag":5042,"Ġlum":5043,"Ġlari":5044,"Ġleg":5045,"Ġlab":5046,"Ġludah":5047,"Ġlew":5048,"Ġles":5049,"Ġlelah":5050,"Ġlad":5051,"Ġlawah":5052,"Ġlett":5053,"Ġlaju":5054,"Ġlamat":5055,"Ġletak":5056,"Ġlulai":5057,"Ġletakkan":5058,"Ġlalang":5059,"Ġlawang":5060,"Ġlacc":5061,"Ġluka":5062,"Ġleppo":5063,"Ġlbh":5064,"Ġlanci":5065,"Ġlonjo":5066,"Ġlele":5067,"Ġsea":5068,"Ġsepat":5069,"Ġseayah":5070,"Ġsepan":5071,"Ġselik":5072,"Ġsegi":5073,"Ġsepuh":5074,"Ġsedih":5075,"Ġselikap":5076,"Ġsepasang":5077,"Ġseder":5078,"Ġsesaj":5079,"Ġsesorang":5080,"Ġsepupu":5081,"ikh":5082,"iko":5083,"ikak":5084,"ikik":5085,"ikek":5086,"ikep":5087,"ikke":5088,"ikirkan":5089,"augh":5090,"autif":5091,"ingat":5092,"ingit":5093,"inginkan":5094,"ukkan":5095,"ukai":5096,"ukut":5097,"Ġberat":5098,"Ġberuk":5099,"Ġbertuk":5100,"Ġberamb":5101,"Ġberita":5102,"Ġberong":5103,"Ġberbuat":5104,"Ġberken":5105,"Ġberbag":5106,"Ġberbau":5107,"Ġbergas":5108,"Ġberant":5109,"Ġbermain":5110,"Ġberani":5111,"Ġberkayu":5112,"Ġberulang":5113,"Ġbermusyawarah":5114,"Ġberamai":5115,"Ġberusia":5116,"Ġberlag":5117,"Ġberburu":5118,"Ġberpati":5119,"Ġberkulit":5120,"Ġbergelar":5121,"Ġbergamb":5122,"Ġberlalu":5123,"Ġbersarang":5124,"Ġberselingkuh":5125,"Ġbergantung":5126,"Ġberlagai":5127,"Ġbermuaranya":5128,"Ġberdaging":5129,"gaanya":5130,"gagkh":5131,"gapura":5132,"gaghang":5133,"gayagh":5134,"Ġnow":5135,"Ġnom":5136,"Ġnad":5137,"Ġnamun":5138,"Ġnati":5139,"Ġnyaman":5140,"Ġnyaw":5141,"Ġnigh":5142,"Ġnanai":5143,"Ġnegi":5144,"Ġnangka":5145,"Ġnimang":5146,"Ġnyamuk":5147,"Ġnice":5148,"Ġnanguy":5149,"Ġnunggang":5150,"Ġnunyai":5151,"Ġnutuk":5152,"Ġnerangke":5153,"Ġnenas":5154,"Ġiya":5155,"Ġiri":5156,"Ġiling":5157,"Ġijuk":5158,"Ġiwa":5159,"Ġirik":5160,"Ġiting":5161,"Ġipar":5162,"Ġijan":5163,"Ġijab":5164,"Ġiyalah":5165,"Ġsai":5166,"Ġsapo":5167,"Ġsatin":5168,"Ġsaro":5169,"Ġsaji":5170,"Ġsateu":5171,"Ġsayur":5172,"Ġsadeu":5173,"Ġsastra":5174,"Ġsawit":5175,"ajuk":5176,"ajut":5177,"padi":5178,"pakan":5179,"pacak":5180,"payan":5181,"payeu":5182,"paccah":5183,"pacah":5184,"pasiw":5185,"tuki":5186,"tukun":5187,"tukuk":5188,"tukek":5189,"tukor":5190,"tukhuk":5191,"tukking":5192,"Ġmenampung":5193,"Ġmendat":5194,"Ġmenet":5195,"Ġmenahan":5196,"Ġmenamp":5197,"Ġmenungg":5198,"Ġmenekan":5199,"Ġmenimang":5200,"Ġmenindik":5201,"Ġmenataki":5202,"Ġmenangis":5203,"Ġmenstruasi":5204,"Ġmenyapu":5205,"Ġmenusuk":5206,"Ġmenelungkup":5207,"ungi":5208,"ungan":5209,"ungei":5210,"ungut":5211,"ayo":5212,"ayat":5213,"ayen":5214,"ayungi":5215,"ish":5216,"isen":5217,"itaman":5218,"ulur":5219,"uleh":5220,"uluw":5221,"ulangan":5222,"ulayat":5223,"Ġhak":5224,"Ġhis":5225,"Ġhadi":5226,"Ġhantu":5227,"Ġhanyak":5228,"Ġhant":5229,"Ġhisan":5230,"Ġhandai":5231,"Ġhaha":5232,"Ġhori":5233,"Ġhormat":5234,"Ġhangat":5235,"Ġhabis":5236,"Ġheal":5237,"Ġherbal":5238,"agari":5239,"agian":5240,"agukan":5241,"agob":5242,"agrep":5243,"ekas":5244,"ekes":5245,"ekulah":5246,"ekken":5247,"ekhan":5248,"ekitar":5249,"eketik":5250,"ilkan":5251,"ileng":5252,"iluy":5253,"how":5254,"Ġatey":5255,"urang":5256,"ureng":5257,"uring":5258,"urnya":5259,"urangi":5260,"urahmi":5261,"Ġudang":5262,"Ġucc":5263,"Ġudara":5264,"Ġucap":5265,"Ġuwegh":5266,"Ġutama":5267,"Ġadatnya":5268,"Ġjo":5269,"Ġjaw":5270,"Ġjambu":5271,"Ġjad":5272,"Ġjawa":5273,"Ġjarak":5274,"Ġjalu":5275,"Ġjena":5276,"Ġjaga":5277,"Ġjod":5278,"Ġjawo":5279,"Ġjambat":5280,"Ġjema":5281,"Ġjorok":5282,"Ġjangkrik":5283,"Ġjanin":5284,"Ġjerang":5285,"Ġjarum":5286,"Ġjasad":5287,"Ġjakkul":5288,"Ġunyi":5289,"Ġunyenno":5290,"Ġunyen":5291,"etakan":5292,"etanya":5293,"etisan":5294,"etris":5295,"Ġwho":5296,"Ġwalu":5297,"Ġwaji":5298,"Ġwuluh":5299,"Ġwarga":5300,"Ġwaway":5301,"Ġdana":5302,"ainkan":5303,"ainnya":5304,"Ġgo":5305,"Ġgol":5306,"Ġgir":5307,"Ġgamb":5308,"Ġguw":5309,"Ġgong":5310,"Ġgisa":5311,"Ġgend":5312,"Ġguru":5313,"Ġgulu":5314,"Ġgerah":5315,"Ġgulung":5316,"Ġgelik":5317,"Ġgoyang":5318,"Ġgoreng":5319,"Ġgigi":5320,"Ġgaruda":5321,"Ġgerudo":5322,"Ġgubuk":5323,"Ġgandi":5324,"Ġgindang":5325,"Ġgeghal":5326,"Ġgiv":5327,"Ġgratis":5328,"Ġgoni":5329,"Ġgatal":5330,"rajin":5331,"Ġmemang":5332,"Ġmembentuk":5333,"Ġmemand":5334,"Ġmembuka":5335,"Ġmeminta":5336,"Ġmemeri":5337,"Ġmemandang":5338,"Ġmemanjang":5339,"Ġmemarut":5340,"Ġmemotong":5341,"Ġmemuat":5342,"Ġmemeram":5343,"Ġmemelihara":5344,"Ġmemuaskan":5345,"Ġmemikirkan":5346,"Ġmemayungi":5347,"Ġmemainkan":5348,"umah":5349,"umegh":5350,"umpul":5351,"umpang":5352,"awat":5353,"awit":5354,"awatan":5355,"awayan":5356,"awija":5357,"awoke":5358,"entar":5359,"entangan":5360,"entingan":5361,"oran":5362,"orak":5363,"Ġinay":5364,"Ġinuh":5365,"Ġindik":5366,"Ġinduk":5367,"Ġinject":5368,"Ġinsiden":5369,"ola":5370,"olan":5371,"olongan":5372,"nyapo":5373,"nyabai":5374,"ehayan":5375,"Ġcab":5376,"Ġcangk":5377,"Ġcua":5378,"Ġcilik":5379,"Ġcend":5380,"Ġcabik":5381,"Ġcinta":5382,"Ġciri":5383,"Ġcina":5384,"Ġcoklat":5385,"Ġcapung":5386,"Ġcabul":5387,"Ġcibut":5388,"Ġcincin":5389,"Ġcaranya":5390,"Ġcadangan":5391,"Ġcicc":5392,"Ġclot":5393,"Ġcupung":5394,"Ġcindai":5395,"Ġcaugh":5396,"Ġcawoke":5397,"utis":5398,"utnya":5399,"utaran":5400,"utenan":5401,"uttal":5402,"Ġperei":5403,"Ġperab":5404,"Ġperse":5405,"Ġperny":5406,"Ġpertan":5407,"Ġperabung":5408,"Ġpereti":5409,"Ġperbuatan":5410,"Ġperkata":5411,"Ġperkutut":5412,"Ġperwakilan":5413,"Ġperkampung":5414,"Ġperlengk":5415,"Ġpermohon":5416,"Ġperulangan":5417,"eggek":5418,"egekken":5419,"Ġanau":5420,"Ġaneg":5421,"Ġantanan":5422,"Ġmengunakan":5423,"Ġmengikat":5424,"Ġmengarak":5425,"Ġmengej":5426,"Ġmengundang":5427,"Ġmenguru":5428,"Ġmengaji":5429,"Ġmengurung":5430,"Ġmenginjak":5431,"Ġmengkel":5432,"Ġmengetahui":5433,"Ġmengatur":5434,"Ġmengungk":5435,"Ġmengakibat":5436,"Ġmengadakan":5437,"Ġmengaduk":5438,"Ġmengiringi":5439,"Ġmengeram":5440,"Ġmengenal":5441,"Ġmengajak":5442,"Ġmengikuti":5443,"Ġmengeringkan":5444,"Ġmengecil":5445,"Ġmenginformasi":5446,"Ġmengahadiri":5447,"Ġmengenai":5448,"Ġmengakses":5449,"Ġmengelupas":5450,"Ġmenginginkan":5451,"Ġmengurangi":5452,"ideng":5453,"idei":5454,"idekat":5455,"idoke":5456,"banggi":5457,"bangle":5458,"bangunkan":5459,"Ġbea":5460,"Ġbeda":5461,"Ġbegaw":5462,"Ġbebag":5463,"Ġbeser":5464,"Ġbebek":5465,"Ġbedana":5466,"Ġbekandang":5467,"Ġbebih":5468,"Ġbesaran":5469,"Ġbetul":5470,"Ġbeautif":5471,"Ġterong":5472,"Ġterasi":5473,"Ġterig":5474,"Ġterkun":5475,"Ġterser":5476,"Ġterhan":5477,"Ġterlam":5478,"Ġterinjak":5479,"Ġterdapat":5480,"Ġtergesa":5481,"Ġterkel":5482,"Ġtercemar":5483,"Ġtergol":5484,"Ġtersangk":5485,"Ġterurus":5486,"Ġterputus":5487,"Ġtersisa":5488,"Ġterpotong":5489,"Ġterihat":5490,"Ġterpeles":5491,"Ġterkukur":5492,"Ġtergor":5493,"Ġterletak":5494,"Ġterbanggi":5495,"berupa":5496,"berbentuk":5497,"berarak":5498,"bersama":5499,"berisi":5500,"bersem":5501,"berenang":5502,"berbe":5503,"berangkat":5504,"berpakaian":5505,"bersiap":5506,"beracun":5507,"berselimut":5508,"berapet":5509,"bercabang":5510,"berlari":5511,"bermalas":5512,"berpisah":5513,"bersenda":5514,"bertambah":5515,"ihan":5516,"irik":5517,"irei":5518,"irok":5519,"irisan":5520,"Ġrasa":5521,"Ġrok":5522,"Ġringg":5523,"Ġres":5524,"Ġrambu":5525,"Ġrom":5526,"Ġrob":5527,"Ġranj":5528,"Ġrant":5529,"Ġreda":5530,"Ġrambat":5531,"Ġront":5532,"Ġramai":5533,"Ġrangka":5534,"Ġringan":5535,"Ġrarai":5536,"Ġrayap":5537,"Ġracun":5538,"Ġreragan":5539,"Ġrawit":5540,"Ġrentangan":5541,"abasa":5542,"abei":5543,"abig":5544,"imek":5545,"Ġkelari":5546,"Ġkeleb":5547,"Ġkelamo":5548,"Ġkelapah":5549,"Ġkelabang":5550,"Ġkelabai":5551,"Ġkelelaw":5552,"udahan":5553,"udents":5554,"Ġrupa":5555,"Ġrubuh":5556,"Ġrugi":5557,"Ġrumput":5558,"Ġrupanya":5559,"adiran":5560,"mahko":5561,"tiang":5562,"tiung":5563,"tiva":5564,"tiruan":5565,"sey":5566,"seangk":5567,"sesu":5568,"sepi":5569,"sepan":5570,"sesat":5571,"sepuk":5572,"sedak":5573,"seduk":5574,"sedar":5575,"sepasang":5576,"sebelum":5577,"sebaj":5578,"sepr":5579,"selipey":5580,"alamnya":5581,"anggu":5582,"anggem":5583,"Ġrumahnya":5584,"Ġrumahku":5585,"Ġrumahmu":5586,"Ġsisi":5587,"Ġsili":5588,"Ġsidat":5589,"Ġsijo":5590,"Ġsilat":5591,"Ġsibuk":5592,"Ġsilo":5593,"Ġsilet":5594,"Ġsits":5595,"Ġsisinya":5596,"riend":5597,"epas":5598,"epit":5599,"eppeng":5600,"epaling":5601,"eprek":5602,"eperti":5603,"nyei":5604,"nyow":5605,"nyungg":5606,"nyitu":5607,"nyekat":5608,"nyeru":5609,"nyic":5610,"nyelik":5611,"nyÃ£am":5612,"nyalei":5613,"nyekelang":5614,"nyetih":5615,"nyecus":5616,"nyemok":5617,"nyeketik":5618,"nyumegh":5619,"nyehayan":5620,"nyepaling":5621,"Ġdipeny":5622,"Ġdiparut":5623,"Ġdipanggil":5624,"Ġdipicit":5625,"Ġdipangang":5626,"Ġdipikke":5627,"Ġtuanya":5628,"Ġtupal":5629,"Ġtubo":5630,"Ġtuha":5631,"patul":5632,"ambalan":5633,"ambarkan":5634,"ebel":5635,"ebei":5636,"ebaseh":5637,"ebatkan":5638,"tanah":5639,"tanju":5640,"ujung":5641,"ujur":5642,"owa":5643,"Ġdigig":5644,"Ġdigali":5645,"Ġdiguring":5646,"Ġdigeprek":5647,"enyeh":5648,"enyangan":5649,"anyakan":5650,"Ġagenda":5651,"Ġagend":5652,"Ġpuasa":5653,"Ġpuih":5654,"Ġpuada":5655,"Ġpuad":5656,"Ġpujuk":5657,"Ġpuisi":5658,"Ġpusak":5659,"Ġpusing":5660,"Ġpubian":5661,"Ġolehnya":5662,"angko":5663,"angku":5664,"angkau":5665,"angkatan":5666,"Ġbendi":5667,"Ġbenar":5668,"Ġbenci":5669,"Ġbenaso":5670,"Ġbenatat":5671,"okeu":5672,"ahanno":5673,"Ġngegh":5674,"Ġngisi":5675,"Ġngigh":5676,"Ġngeri":5677,"Ġngey":5678,"Ġngedi":5679,"Ġngattip":5680,"Ġngelep":5681,"Ġngajak":5682,"Ġngantak":5683,"Ġngupei":5684,"Ġngilih":5685,"Ġngopi":5686,"Ġngemik":5687,"Ġngelaj":5688,"Ġngisen":5689,"Ġnganggem":5690,"ĠNayah":5691,"ĠNgem":5692,"ĠNiku":5693,"perabung":5694,"perangkap":5695,"pergi":5696,"perbo":5697,"persen":5698,"peralatan":5699,"perkenalkan":5700,"perhiasan":5701,"peraturan":5702,"perwakilan":5703,"percantik":5704,"perminta":5705,"perawatan":5706,"uwat":5707,"uwir":5708,"Ġsekebut":5709,"Ġsekalei":5710,"Ġsekelompok":5711,"Ġsekujur":5712,"ongsong":5713,"elit":5714,"elihan":5715,"eliyou":5716,"ghak":5717,"ghun":5718,"ghei":5719,"ghuppek":5720,"ghilang":5721,"gheruh":5722,"Ġbiar":5723,"Ġbiru":5724,"Ġbiang":5725,"Ġbiasa":5726,"Ġbilis":5727,"Ġbiaya":5728,"Ġbilim":5729,"Ġkerang":5730,"Ġkeris":5731,"Ġkerih":5732,"Ġkeruc":5733,"Ġkeramat":5734,"Ġkeranjang":5735,"Ġkerincing":5736,"Ġkeretanya":5737,"Ġpedang":5738,"Ġpeci":5739,"Ġpesan":5740,"Ġpedih":5741,"Ġpecce":5742,"Ġpedem":5743,"amaan":5744,"Ġkupu":5745,"Ġkuah":5746,"Ġkuda":5747,"Ġkuali":5748,"Ġkusing":5749,"Ġkuahnya":5750,"Ġkuburan":5751,"empati":5752,"empatan":5753,"Ġmudi":5754,"Ġmuasal":5755,"Ġmubil":5756,"suara":5757,"suatu":5758,"suapan":5759,"subuk":5760,"suami":5761,"supik":5762,"suaikan":5763,"suasana":5764,"embelihan":5765,"Ġlampungne":5766,"bendi":5767,"benang":5768,"benas":5769,"Ġputas":5770,"Ġputri":5771,"Ġputra":5772,"Ġputtei":5773,"Ġdilapis":5774,"Ġdilew":5775,"Ġdilett":5776,"Ġdilamar":5777,"Ġdilaksanakan":5778,"Ġdilagukan":5779,"Ġdiletakan":5780,"Ġdipakaiakan":5781,"Ġgabus":5782,"Ġgabo":5783,"Ġgasing":5784,"Ġgabeng":5785,"Ġgapura":5786,"Ġgajab":5787,"Ġgaghak":5788,"Ġbubur":5789,"Ġburuk":5790,"Ġmerem":5791,"Ġmerasa":5792,"Ġmerapat":5793,"Ġmerend":5794,"Ġmergo":5795,"Ġmeranai":5796,"Ġmerpati":5797,"Ġmerebut":5798,"Ġmerentangkan":5799,"Ġmerusak":5800,"Ġmeruncing":5801,"Ġmerajut":5802,"pelan":5803,"pelajaran":5804,"pelagan":5805,"pelekekh":5806,"peleto":5807,"pelaminan":5808,"ewke":5809,"esegen":5810,"essei":5811,"piaskan":5812,"piyul":5813,"pijakan":5814,"pandai":5815,"pandan":5816,"Ġpenganan":5817,"Ġpenganten":5818,"Dipa":5819,"Dibel":5820,"Ġpantat":5821,"Ġpantesan":5822,"ompat":5823,"omok":5824,"ometris":5825,"disini":5826,"Ġbagha":5827,"Ġbaghono":5828,"Ġmaupun":5829,"Ġmenyed":5830,"Ġmenyangga":5831,"Ġmenyuc":5832,"Ġmenyisi":5833,"Ġmenyulam":5834,"Ġmenyengat":5835,"Ġmenyilang":5836,"Ġmenyusul":5837,"Ġmenyeleng":5838,"Ġmenyekap":5839,"Ġmenyesat":5840,"Ġmenyemburkan":5841,"Ġmenyusui":5842,"Ġmenyelasaikan":5843,"Ġmenyebatkan":5844,"Ġgeleng":5845,"Ġgelau":5846,"Ġgelagh":5847,"Ġgelakh":5848,"Ġgelleng":5849,"eghas":5850,"eghei":5851,"eghangan":5852,"Ġanakno":5853,"adak":5854,"adek":5855,"adeu":5856,"adaran":5857,"adegei":5858,"adju":5859,"khikat":5860,"khukhuk":5861,"khalayak":5862,"Ġmakhluk":5863,"Ġmakna":5864,"Ġmelamun":5865,"Ġmelengk":5866,"Ġmelanj":5867,"Ġmelekat":5868,"Ġmelamar":5869,"Ġmelepaskan":5870,"Ġmelempar":5871,"Ġmelayang":5872,"Ġmelakoh":5873,"Ġmelukai":5874,"Ġmelepas":5875,"asano":5876,"arno":5877,"Ġliar":5878,"Ġlibo":5879,"Ġlipatan":5880,"Ġlibur":5881,"Ġlilitan":5882,"mengian":5883,"mengikat":5884,"menggel":5885,"mengisi":5886,"menguru":5887,"mengger":5888,"mengangguk":5889,"mengetahui":5890,"mengedi":5891,"mengasah":5892,"mengaduk":5893,"mengelilingi":5894,"mengibut":5895,"mengelus":5896,"mengirim":5897,"menganggap":5898,"menghamp":5899,"menguburkan":5900,"mengonfir":5901,"mengumpul":5902,"palang":5903,"palai":5904,"palawija":5905,"kecil":5906,"ketua":5907,"kepuh":5908,"kejam":5909,"keputus":5910,"keinginan":5911,"kesepakatan":5912,"keturunan":5913,"kedadak":5914,"memang":5915,"memaki":5916,"memasuk":5917,"memancing":5918,"memberit":5919,"memarut":5920,"memetik":5921,"memotong":5922,"memasukan":5923,"memuluk":5924,"mematuk":5925,"memaksakan":5926,"membujuk":5927,"memingit":5928,"memungut":5929,"memagari":5930,"mempercantik":5931,"Ġkalo":5932,"Ġkaleng":5933,"Ġpengig":5934,"Ġpengangkon":5935,"Ġpengganti":5936,"Ġpengaghek":5937,"Ġpengobatan":5938,"Ġpengetuho":5939,"Ġpengembus":5940,"ĠSalam":5941,"ĠSapa":5942,"ĠSeri":5943,"ĠSapo":5944,"ĠSore":5945,"ĠSemuanya":5946,"ĠSeun":5947,"ĠSasso":5948,"ĠSekulah":5949,"ĠSeperti":5950,"Ġarus":5951,"Ġaring":5952,"Ġarit":5953,"Ġarena":5954,"Ġartinya":5955,"Ġargu":5956,"Ġarte":5957,"Ġcalls":5958,"kuy":5959,"kupu":5960,"kugh":5961,"kuben":5962,"kulik":5963,"kucing":5964,"kugkh":5965,"kubeu":5966,"kuawayan":5967,"Ġdaftar":5968,"Ġtiung":5969,"Ġtigo":5970,"Ġtipis":5971,"Ġbalo":5972,"Ġbalang":5973,"Ġbalok":5974,"Ġkemang":5975,"Ġkemalu":5976,"Ġkemalang":5977,"Ġkemiyak":5978,"Ġkemasukan":5979,"Ġkematangan":5980,"Ġkemasyarak":5981,"Ġkemudahan":5982,"Ġkedek":5983,"Ġbenangitu":5984,"Ġpemakan":5985,"Ġpemilik":5986,"Ġpemandai":5987,"Ġpemainnya":5988,"Ġpemangku":5989,"Ġnyo":5990,"Ġnyusun":5991,"Ġnyusul":5992,"Ġnyelem":5993,"Ġnyekelang":5994,"Ġnyetih":5995,"Ġnyemet":5996,"Ġnyalai":5997,"Ġnyirok":5998,"Ġnyomok":5999,"Ġbelahan":6000,"Ġbelalang":6001,"Ġbelanda":6002,"Ġmanem":6003,"Ġmanik":6004,"hati":6005,"pengesa":6006,"pengej":6007,"pengiran":6008,"pengganti":6009,"pengobatan":6010,"pengulem":6011,"pengarek":6012,"pengenei":6013,"pengakenan":6014,"pengunduran":6015,"pengutenan":6016,"pengeliyou":6017,"pengadek":6018,"Ġdiberangkat":6019,"aghan":6020,"aghang":6021,"aghas":6022,"Ġghal":6023,"Ġghaso":6024,"Ġghuppek":6025,"Ġghihei":6026,"Ġghiyang":6027,"Ġghubuh":6028,"Ġghenglay":6029,"Ġgheppeng":6030,"Ġghenyeh":6031,"Ġghaghang":6032,"tikellen":6033,"Ġdissan":6034,"Ġdisengat":6035,"Ġdisembelih":6036,"Ġdisetiap":6037,"Ġdisembuh":6038,"Ġdisuntik":6039,"Ġdisuwir":6040,"runnas":6041,"Ġpelus":6042,"Ġpelapis":6043,"Ġpeluru":6044,"Ġpeladangan":6045,"Ġsebelah":6046,"Ġsebagi":6047,"Ġsebagian":6048,"Ġsebentar":6049,"Ġatasnya":6050,"ĠwanitaÃ¢":6051,"uaan":6052,"Ġmenggenang":6053,"Ġmenggala":6054,"Ġmenggoyang":6055,"Ġmenggigit":6056,"Ġmenggoda":6057,"Ġmengganggu":6058,"Ġmenggambarkan":6059,"ujanan":6060,"edo":6061,"edem":6062,"taan":6063,"tapung":6064,"tapel":6065,"tabun":6066,"tabuhan":6067,"tapus":6068,"Ġpunyew":6069,"ĠKi":6070,"ĠKuk":6071,"ĠKhe":6072,"ĠKemar":6073,"ĠKalian":6074,"ĠKunang":6075,"ĠKumbang":6076,"ĠKedondong":6077,"ĠKendondong":6078,"arane":6079,"ĠlakiÃ¢":6080,"Ġistrinya":6081,"Ġsako":6082,"Ġsaksi":6083,"ranjang":6084,"acam":6085,"accak":6086,"acher":6087,"Ġpencak":6088,"Ġpenolak":6089,"Ġpenabuh":6090,"Ġpenanda":6091,"Ġpenobatan":6092,"Ġpenjaga":6093,"Ġpenumpang":6094,"Ġpenempatan":6095,"engkar":6096,"engkur":6097,"Ġtaneh":6098,"Ġtando":6099,"Ġtanjar":6100,"Ġjuz":6101,"Ġjual":6102,"Ġjuyu":6103,"Ġnikah":6104,"sara":6105,"sarapan":6106,"penentu":6107,"penyakit":6108,"penanda":6109,"penambahan":6110,"pendaw":6111,"pennyei":6112,"peneghangan":6113,"Ġdikampung":6114,"Ġdikomb":6115,"Ġdikre":6116,"Ġdikerat":6117,"Ġdikenal":6118,"Ġdikirim":6119,"Ġdikeringkan":6120,"Ġdikonsum":6121,"Ġdikarenakan":6122,"Ġsutra":6123,"Ġsuttaan":6124,"ciyak":6125,"cibung":6126,"cicc":6127,"esak":6128,"jaad":6129,"menari":6130,"meniti":6131,"menentang":6132,"menjadikan":6133,"mendo":6134,"menekan":6135,"menunjuk":6136,"menikahi":6137,"meninggalkan":6138,"menjelekkan":6139,"menjulai":6140,"menanyakan":6141,"menempati":6142,"versi":6143,"Ġyasudan":6144,"Ġlebayen":6145,"ĠbagianÃ¢":6146,"Ġdepannya":6147,"ĠAyam":6148,"ĠAgo":6149,"ĠAgak":6150,"ĠAteu":6151,"ĠAtau":6152,"ĠAnying":6153,"Ġbanyaknya":6154,"Ġsuap":6155,"Ġsubuh":6156,"Ġsuci":6157,"Ġsuguh":6158,"Ġsuppuk":6159,"laturahmi":6160,"mudi":6161,"mupeu":6162,"muaghi":6163,"musaw":6164,"taruh":6165,"tarken":6166,"Ġkarem":6167,"Ġkaret":6168,"Ġkaruan":6169,"Ġtempatnya":6170,"Ġsepertnya":6171,"igel":6172,"igil":6173,"ĠTadi":6174,"ĠTukuk":6175,"ĠTidur":6176,"ĠTebu":6177,"ĠTetapi":6178,"ĠTonggeret":6179,"ĠTano":6180,"purem":6181,"Ġkakinya":6182,"Ġkakiku":6183,"Ġmasin":6184,"utut":6185,"Ġsela":6186,"Ġselan":6187,"Ġselain":6188,"Ġseluang":6189,"Ġselanj":6190,"Ġseluru":6191,"Ġselutut":6192,"nikel":6193,"upah":6194,"upih":6195,"uppel":6196,"andan":6197,"ander":6198,"Ġbulai":6199,"Ġbulung":6200,"Ġbulunya":6201,"Ġbuleukeu":6202,"Ġtumang":6203,"Ġtumbang":6204,"Ġtumpul":6205,"Ġhujannya":6206,"ĠMan":6207,"ĠMain":6208,"ĠMalam":6209,"ĠMettei":6210,"ĠMider":6211,"ĠMadu":6212,"ĠMisalnya":6213,"dingin":6214,"Ġdibeli":6215,"Ġdibingi":6216,"Ġdibentangkan":6217,"Ġdibekas":6218,"selang":6219,"selend":6220,"selagai":6221,"selawat":6222,"selesegen":6223,"ataan":6224,"Ġpohonnya":6225,"linggem":6226,"Ġumpet":6227,"Ġbesarnya":6228,"ĠsepertiÃ¢":6229,"Ġwatun":6230,"Ġwatteu":6231,"terikan":6232,"terbal":6233,"tergesa":6234,"terbangan":6235,"terceng":6236,"terubuk":6237,"terisak":6238,"tergulung":6239,"terupong":6240,"tersedak":6241,"ĠPak":6242,"ĠPadi":6243,"ĠPagi":6244,"ĠPelan":6245,"ĠPunya":6246,"ĠPigho":6247,"ĠPercakapan":6248,"ĠPedem":6249,"gelugur":6250,"geladak":6251,"ampingi":6252,"Ġkitapun":6253,"keram":6254,"kerbau":6255,"kerajat":6256,"keric":6257,"keranjang":6258,"kerdil":6259,"keringat":6260,"obak":6261,"obaso":6262,"Ġpribadi":6263,"tumang":6264,"tumbang":6265,"tumpal":6266,"tumpukan":6267,"Ġhilir":6268,"Ġmembantu":6269,"Ġmembeda":6270,"Ġmembakar":6271,"Ġmembasah":6272,"Ġmembalik":6273,"Ġmembayar":6274,"Ġmembalutkan":6275,"Ġmembasahkan":6276,"agabaya":6277,"keniluy":6278,"Ġseru":6279,"Ġserah":6280,"Ġseraya":6281,"Ġserangan":6282,"Ġseribu":6283,"Selan":6284,"bagus":6285,"cakak":6286,"cakukh":6287,"kuningan":6288,"kunyit":6289,"ĠHanya":6290,"ĠHantu":6291,"ĠHutan":6292,"ĠHormat":6293,"dikou":6294,"entur":6295,"bundelan":6296,"pokak":6297,"sesang":6298,"sesego":6299,"sesori":6300,"yanyikan":6301,"Ġkano":6302,"Ġkanjak":6303,"Ġharta":6304,"pemakai":6305,"pembub":6306,"pemandai":6307,"pemasangan":6308,"pemuluw":6309,"pemutaran":6310,"pemadaran":6311,"ucap":6312,"ĠGham":6313,"ĠGeru":6314,"ĠGabus":6315,"ĠRumah":6316,"butei":6317,"Ġtanganku":6318,"Ġlainnya":6319,"Ġmendidih":6320,"Ġharimau":6321,"Ġsekolahmu":6322,"Ġpanjangnya":6323,"Ġkabarmu":6324,"iliki":6325,"kemang":6326,"kemana":6327,"kemilik":6328,"kemarahan":6329,"kemessei":6330,"kemeghas":6331,"kemaghas":6332,"antikan":6333,"Ġkoin":6334,"gkheda":6335,"gkhihei":6336,"gkhibung":6337,"gkhujuk":6338,"gkhellem":6339,"gkhikik":6340,"gkhaccak":6341,"gkhuppel":6342,"pembantu":6343,"sopan":6344,"soven":6345,"Ġgawei":6346,"emuan":6347,"Ġketikelan":6348,"Ġbundar":6349,"Ġbayat":6350,"Ġbayeh":6351,"pekok":6352,"manik":6353,"manusia":6354,"mandayi":6355,"manuskri":6356,"Ġdinaseh":6357,"Ġdinikahi":6358,"Ġdinyanyikan":6359,"Ġsekulahmu":6360,"Ġberbagi":6361,"Ġibunya":6362,"Nyesak":6363,"bakul":6364,"bakkit":6365,"kumun":6366,"kuming":6367,"kumpulan":6368,"kumiyak":6369,"serak":6370,"sering":6371,"serangga":6372,"serabut":6373,"seriding":6374,"serdawa":6375,"Ġfish":6376,"Ġfriend":6377,"antah":6378,"Ġkijing":6379,"Ġkurei":6380,"Ġkendaraan":6381,"Ġkencur":6382,"Ġkental":6383,"Ġkencang":6384,"Ġkenahanno":6385,"Ġmuncul":6386,"buleng":6387,"bulung":6388,"Ġsiwa":6389,"Ġsiwek":6390,"Ġlimo":6391,"Ġsangun":6392,"Ġsangai":6393,"Ġsanguw":6394,"Ġsangrai":6395,"Ġmenghina":6396,"Ġmenghubung":6397,"Ġmenghindar":6398,"kawat":6399,"kawai":6400,"letuk":6401,"lebung":6402,"musek":6403,"musegh":6404,"musey":6405,"panggah":6406,"panggau":6407,"semek":6408,"semut":6409,"semegkh":6410,"semanda":6411,"semarahan":6412,"semesuk":6413,"semered":6414,"semeghei":6415,"semacam":6416,"uyah":6417,"uyuran":6418,"Ġangsa":6419,"Ġangrang":6420,"Ġulang":6421,"Ġulas":6422,"Ġuleu":6423,"ngepuluh":6424,"ngepegh":6425,"ngeberas":6426,"ngecce":6427,"ngecum":6428,"ngedikou":6429,"ngerabung":6430,"ngerekk":6431,"ngerice":6432,"ngerarai":6433,"ngeruwah":6434,"ngeruco":6435,"ngerecako":6436,"ngerahhat":6437,"ngerurang":6438,"ngerutis":6439,"Ġketupat":6440,"Ġketujuh":6441,"Ġketuwir":6442,"Ġpindai":6443,"Ġditenun":6444,"Ġditemukan":6445,"Ġditambah":6446,"Ġditelur":6447,"Ġditinggalkan":6448,"Ġditebang":6449,"Ġsemelep":6450,"Ġsemangko":6451,"Ġseni":6452,"Ġsenada":6453,"Ġsenato":6454,"Ġsenonoh":6455,"Ġmencukur":6456,"Ġmencuat":6457,"iringan":6458,"ujutan":6459,"Ġhiasannya":6460,"Ġtetua":6461,"Ġtekanjat":6462,"Ġteacher":6463,"merupakan":6464,"merantau":6465,"meredu":6466,"merajuk":6467,"Kelapa":6468,"Kelabang":6469,"Kelapo":6470,"biar":6471,"biru":6472,"biang":6473,"biaya":6474,"biasanya":6475,"bijak":6476,"biola":6477,"balang":6478,"balun":6479,"balur":6480,"balok":6481,"belur":6482,"belarak":6483,"belabei":6484,"belongsong":6485,"beladju":6486,"goyang":6487,"jijik":6488,"pakkul":6489,"pakkeng":6490,"paksangko":6491,"uruk":6492,"ĠDang":6493,"ĠDengan":6494,"ĠDiri":6495,"ĠDinding":6496,"ĠDimana":6497,"ĠDebingei":6498,"ĠDidekat":6499,"ĠDirei":6500,"ĠDebei":6501,"ĠJin":6502,"ĠJangan":6503,"ĠJenno":6504,"ĠJagob":6505,"ĠJagabaya":6506,"Ġalin":6507,"Ġalas":6508,"Ġalasan":6509,"Ġaliran":6510,"Ġalangkah":6511,"anaknya":6512,"Ġpenyambutan":6513,"Ġpenyesan":6514,"Ġpenyungk":6515,"Ġpenyebab":6516,"Ġpenyengek":6517,"Ġpenyembelihan":6518,"yawan":6519,"Ġjalanan":6520,"Ġmemperlai":6521,"Ġmemperindah":6522,"Ġmempersaudara":6523,"Ġbelimbing":6524,"Ġtertahan":6525,"telaga":6526,"telesan":6527,"telapak":6528,"telubus":6529,"telemes":6530,"Ketuw":6531,"Kecebong":6532,"betumpal":6533,"book":6534,"bingo":6535,"bingung":6536,"bingngo":6537,"bekei":6538,"bekimbang":6539,"bekatan":6540,"bekaghih":6541,"bekuagh":6542,"bekekes":6543,"bekimek":6544,"dukat":6545,"kukhik":6546,"ketika":6547,"keterem":6548,"kayuan":6549,"pintu":6550,"pahau":6551,"pahhegh":6552,"Ġasab":6553,"Ġasakh":6554,"Ġasalnya":6555,"Ġenom":6556,"sirit":6557,"sirep":6558,"sakal":6559,"sakik":6560,"sakkak":6561,"Ġbahanya":6562,"Ġbahaya":6563,"Ġbahaban":6564,"Ġbatok":6565,"Ġbattayan":6566,"Ġbanglai":6567,"Ġbangsawan":6568,"Ġbangunan":6569,"Ġpakain":6570,"Ġpakkal":6571,"Ġpakkuh":6572,"Ġpakkeng":6573,"Ġpaksangko":6574,"Ġpisau":6575,"Ġdicuwak":6576,"Ġdicacah":6577,"Ġdicapur":6578,"Ġdijjo":6579,"Ġdijual":6580,"Ġdijemur":6581,"Ġdijangkau":6582,"Ġtelur":6583,"Ġtelapah":6584,"Ġtelapak":6585,"Ġtelunjuk":6586,"Ġtetap":6587,"Ġtetik":6588,"Ġtetangga":6589,"Ġsembilu":6590,"Ġanyamannya":6591,"Ġkulitnya":6592,"Ġbelakangnya":6593,"Ġtumbuhan":6594,"ĠRajabasa":6595,"ĠRajobaso":6596,"Nyowkah":6597,"Ġanginnya":6598,"Ġanginno":6599,"Burung":6600,"bebai":6601,"bebidak":6602,"bebali":6603,"bebawang":6604,"bebbeg":6605,"bebahhan":6606,"bebegen":6607,"kekkuk":6608,"kekket":6609,"kekkep":6610,"keketik":6611,"kekenyangan":6612,"osuluh":6613,"remo":6614,"rembung":6615,"rempah":6616,"Ġikatnya":6617,"aloanow":6618,"Ġmaag":6619,"Ġpembantu":6620,"Ġpembingk":6621,"Ġpembicara":6622,"Ġpembakaran":6623,"Ġtemmen":6624,"Ġtemannya":6625,"Ġsukun":6626,"Ġsukulah":6627,"Ġsupayo":6628,"Ġlambung":6629,"Ġlamaran":6630,"Ġlamakah":6631,"Ġseibu":6632,"Ġsedangkan":6633,"payuk":6634,"payudara":6635,"Ġmendung":6636,"Ġmendekap":6637,"Ġmendampingi":6638,"Ġmenjulang":6639,"Ġmenjelang":6640,"Ġmenjorong":6641,"Ġmenjual":6642,"Ġmenjemur":6643,"Ġpertolongan":6644,"Ġpertemuan":6645,"daluw":6646,"Ġcelak":6647,"Ġcecuk":6648,"Ġcepokak":6649,"Ġtahi":6650,"Ġtahei":6651,"Ġtahapan":6652,"Ġasang":6653,"Ġasli":6654,"Ġasso":6655,"Kakkuk":6656,"Kakiku":6657,"batuk":6658,"icles":6659,"iccep":6660,"kibut":6661,"kibel":6662,"kicep":6663,"kidas":6664,"kusei":6665,"kusuran":6666,"mato":6667,"matek":6668,"menyampaikan":6669,"menyulam":6670,"menyerupai":6671,"menyepuh":6672,"negagkh":6673,"nakou":6674,"nakat":6675,"sekong":6676,"sekeli":6677,"sekuang":6678,"sekhep":6679,"sudut":6680,"tangos":6681,"they":6682,"Ġ20":6683,"Ġ24":6684,"Ġkumun":6685,"Ġberjamaan":6686,"Ġmeet":6687,"Ġmedia":6688,"Ġmeander":6689,"Ġmelihatnya":6690,"Ġpager":6691,"Ġpagelaran":6692,"Ġdiikatkan":6693,"Ġdagangan":6694,"Ġduri":6695,"Ġdewangga":6696,"Ġdewasano":6697,"bubai":6698,"bubet":6699,"bubbuk":6700,"bubbet":6701,"bubbukan":6702,"Ġsampah":6703,"tutup":6704,"tutus":6705,"tutuw":6706,"tutugen":6707,"Ġluak":6708,"Ġlupan":6709,"Ġlemai":6710,"Ġlemaweng":6711,"Ġlematek":6712,"Ġlake":6713,"Ġlakeu":6714,"Ġlakow":6715,"Ġlakew":6716,"Ġlunan":6717,"Ġlunak":6718,"Ġlunding":6719,"Ġlutui":6720,"Ġbertambah":6721,"Ġbertengkar":6722,"Ġjamur":6723,"Ġjamei":6724,"Ġwarni":6725,"Ġwarno":6726,"Ġdipersiap":6727,"Ġdipersyarat":6728,"Ġdiperteng":6729,"menggulung":6730,"menggantungkan":6731,"menggaruk":6732,"menggigil":6733,"Ġkedudukannya":6734,"Ġpelaksaan":6735,"acca":6736,"Ġkunyahan":6737,"kunjungi":6738,"Ġsusahnya":6739,"Ġteko":6740,"singut":6741,"singgasana":6742,"Ġpatah":6743,"Ġpatak":6744,"Ġpatut":6745,"Ġpatinya":6746,"Ġpatjah":6747,"Ġsumput":6748,"Ġsumang":6749,"Ġsumpuk":6750,"Ġsumugh":6751,"Ġsumurnya":6752,"Beruk":6753,"Berikan":6754,"Berdiri":6755,"Daknei":6756,"Tiung":6757,"bayi":6758,"bayo":6759,"bayung":6760,"bedah":6761,"bedak":6762,"bedow":6763,"capit":6764,"cappang":6765,"father":6766,"istri":6767,"istirahat":6768,"jejamo":6769,"jejalen":6770,"kalung":6771,"kalian":6772,"kalajengking":6773,"keppuh":6774,"kelimus":6775,"keliyang":6776,"kelikuk":6777,"lampu":6778,"lakkai":6779,"melempar":6780,"melayang":6781,"melompat":6782,"membawa":6783,"membicara":6784,"membayar":6785,"membidik":6786,"membantah":6787,"penyangga":6788,"penyebutan":6789,"penyengek":6790,"penyesuk":6791,"penyikep":6792,"sumang":6793,"sumbeng":6794,"sumbangan":6795,"sumputan":6796,"Ġanggow":6797,"punduk":6798,"ngegantung":6799,"ngegiser":6800,"ngegudi":6801,"ngegameh":6802,"ngegegekken":6803,"ngebalo":6804,"ngebekh":6805,"ngebader":6806,"ngebaten":6807,"ngebidei":6808,"Ġkeco":6809,"Ġkecoa":6810,"Ġkecoklat":6811,"Ġkecombrang":6812,"Ġkecantikan":6813,"Ġbekukut":6814,"Ġbadak":6815,"Ġdipagari":6816,"Ġdgn":6817,"Ġdlu":6818,"Ġdekatnya":6819,"Ġsahibul":6820,"Ġsunuk":6821,"Ġsuntan":6822,"Ġsunanat":6823,"Ġsanggar":6824,"daunan":6825,"petai":6826,"petagh":6827,"Ġlauk":6828,"Ġsehari":6829,"Ġsehabis":6830,"ikutinya":6831,"Ġnilon":6832,"Ġhallit":6833,"Ġgegak":6834,"Ġgegasei":6835,"tipis":6836,"Ġpuncak":6837,"Ġngerei":6838,"Ġngeruco":6839,"kedudukan":6840,"kedekk":6841,"Ġkemargaanya":6842,"mencub":6843,"mencoret":6844,"Ġenaknya":6845,"ibunya":6846,"recako":6847,"surang":6848,"surew":6849,"Ġlawan":6850,"Ġlawas":6851,"Ġlawuk":6852,"Ġngejungei":6853,"logam":6854,"tatek":6855,"tatakan":6856,"tattei":6857,"Ġberduri":6858,"Ġberduaan":6859,"Ġberdandan":6860,"Kembang":6861,"Kemana":6862,"Kemelek":6863,"Kemiyak":6864,"Punyew":6865,"Tanah":6866,"Taneh":6867,"Untuk":6868,"banyeu":6869,"bengong":6870,"benggel":6871,"bilah":6872,"belida":6873,"beliuk":6874,"belitar":6875,"hujanan":6876,"jamei":6877,"jahhar":6878,"keluyuran":6879,"lapuk":6880,"laos":6881,"lukko":6882,"lukkep":6883,"mampu":6884,"mampus":6885,"senik":6886,"senelek":6887,"senjata":6888,"tahi":6889,"terjulai":6890,"terjatuh":6891,"terjulur":6892,"terjelit":6893,"tekacah":6894,"wanita":6895,"Ġopor":6896,"Ġvar":6897,"Ġakin":6898,"Ġakad":6899,"Ġaksara":6900,"Ġaksesori":6901,"Ġingat":6902,"Ġingek":6903,"Ġrajin":6904,"Ġkating":6905,"Ġkatakan":6906,"Ġkattip":6907,"Ġkattew":6908,"Ġkulup":6909,"Ġkulintang":6910,"Ġkepih":6911,"Ġkepentingan":6912,"rukak":6913,"Ġbegwi":6914,"Ġdimasak":6915,"Ġdimulai":6916,"Ġdimangsa":6917,"Ġdimiliki":6918,"Ġdiselipkan":6919,"Ġdisesuaikan":6920,"Ġditanam":6921,"Ġditancapkan":6922,"Ġtaking":6923,"Ġtajei":6924,"Ġtajalan":6925,"limar":6926,"tuweh":6927,"tuwala":6928,"tuwaloanow":6929,"Ġbersuamikan":6930,"Ġberisikan":6931,"Ġnyappuk":6932,"Ġnyadangke":6933,"Ġwajah":6934,"Ġwajik":6935,"idahne":6936,"Ġremeng":6937,"Ġremaja":6938,"Ġrakitan":6939,"sesapur":6940,"sesagun":6941,"Ġsirit":6942,"Ġsiapapun":6943,"Ġngebattur":6944,"Ġngebidoke":6945,"Ġpemanas":6946,"Ġhiasnya":6947,"yewlah":6948,"calon":6949,"getuk":6950,"gelisah":6951,"ĠIyewlah":6952,"Anda":6953,"Anek":6954,"Anjing":6955,"Dikedo":6956,"Disana":6957,"Disini":6958,"Disekitar":6959,"Kepiting":6960,"Kepinding":6961,"Kepalaku":6962,"Kabarnya":6963,"Lele":6964,"Lebat":6965,"Memancing":6966,"Memalukan":6967,"Memperkenalkan":6968,"Perkutut":6969,"Terima":6970,"Terserah":6971,"Terkukur":6972,"berjamur":6973,"betammat":6974,"betangas":6975,"begik":6976,"begero":6977,"bonggol":6978,"besok":6979,"bande":6980,"gemah":6981,"golnya":6982,"gegasei":6983,"geguleh":6984,"gegekhan":6985,"harapan":6986,"kutil":6987,"kutting":6988,"kutamara":6989,"kesana":6990,"kesini":6991,"keselek":6992,"keghak":6993,"keghaman":6994,"keghasen":6995,"luing":6996,"langit":6997,"langir":6998,"lelung":6999,"lelaki":7000,"lelamet":7001,"lewat":7002,"makul":7003,"maksud":7004,"pikkek":7005,"sengal":7006,"sengel":7007,"sengek":7008,"sembah":7009,"sembab":7010,"sembeb":7011,"tetangan":7012,"tetawai":7013,"tetappel":7014,"tepi":7015,"tepas":7016,"tepattuk":7017,"ughas":7018,"Ġamben":7019,"Ġambau":7020,"Ġambaw":7021,"ĠUntuk":7022,"puskam":7023,"ngelemun":7024,"Ġkamhluk":7025,"Ġkilat":7026,"Ġkilak":7027,"Ġkilui":7028,"Ġkandung":7029,"Ġkotoran":7030,"Ġketiran":7031,"Ġketakutan":7032,"Ġbaung":7033,"Ġbetok":7034,"Ġbetapa":7035,"Ġbetetteu":7036,"Ġbabi":7037,"Ġbabon":7038,"Ġbabak":7039,"Ġbuwah":7040,"Ġbuwek":7041,"Ġbuwet":7042,"Ġbawaan":7043,"Ġmasalah":7044,"Ġmuser":7045,"Ġmuseng":7046,"Ġmusyawarah":7047,"Ġmedal":7048,"Ġpingang":7049,"Ġpingir":7050,"Ġpingsan":7051,"Ġpekonmu":7052,"Ġpegangan":7053,"Ġpanggul":7054,"Ġpaccung":7055,"Ġdianek":7056,"Ġdianyam":7057,"Ġdiantara":7058,"Ġderas":7059,"Ġderajat":7060,"Ġdermaga":7061,"Ġdebeu":7062,"Ġdebbei":7063,"Ġdebingei":7064,"Ġtikar":7065,"Ġtebak":7066,"Ġtebakan":7067,"Ġtebentur":7068,"Ġtoman":7069,"Ġtabuan":7070,"Ġtingkatan":7071,"Ġtunasnya":7072,"Ġsangkala":7073,"Ġsuhu":7074,"Ġsuhun":7075,"peghadu":7076,"peghetisan":7077,"Ġawal":7078,"Ġawet":7079,"Ġawalan":7080,"Ġlinau":7081,"Ġlintah":7082,"Ġlindung":7083,"Ġseghadeu":7084,"Ġbercabang":7085,"Ġbercerai":7086,"Ġbercorak":7087,"Ġberhulu":7088,"Ġbersekat":7089,"Ġbersulam":7090,"Ġbersunat":7091,"Ġbersilah":7092,"Ġbersifat":7093,"Ġbersilaturahmi":7094,"Ġnamanya":7095,"Ġnamamu":7096,"Ġnamone":7097,"Ġiring":7098,"Ġisikan":7099,"Ġmenancapkan":7100,"Ġmenerangkan":7101,"Ġmenumbuk":7102,"Ġmendapatkan":7103,"Ġurusan":7104,"ĠutaraÃ¢":7105,"Ġjenguk":7106,"Ġgedang":7107,"Ġgelisah":7108,"Ġgeometris":7109,"Ġcempedak":7110,"Ġmenguasai":7111,"Ġmengawali":7112,"Ġterpendam":7113,"Ġrimbun":7114,"Ġrimbo":7115,"Ġrimba":7116,"Ġsimpan":7117,"Ġsimbul":7118,"Ġsimbol":7119,"nyier":7120,"nyikkek":7121,"nyikkal":7122,"ĠNyow":7123,"pengajian":7124,"Ġpenjelasan":7125,"Ġpenjinak":7126,"Ġpenjujutan":7127,"ĠAnda":7128,"Ġdililitkan":7129,"Laron":7130,"Larva":7131,"mulek":7132,"Ġkomering":7133,"Ġkomunik":7134,"Ġmacamnya":7135,"Ġmacemne":7136,"Ġmejjeng":7137,"Ġguring":7138,"astis":7139,"Ġstlh":7140,"Ġstudents":7141,"Ġandep":7142,"Ġredik":7143,"Ġrebus":7144,"rombongan":7145,"ĠInggrismu":7146,"Harimau":7147,"Kampungku":7148,"Lipan":7149,"Libak":7150,"Luing":7151,"Lupan":7152,"Mateng":7153,"Matikan":7154,"Mengapa":7155,"Mengikutinya":7156,"Napuh":7157,"Sili":7158,"Sidat":7159,"Sumur":7160,"Sumugh":7161,"Tanganku":7162,"cengeng":7163,"canggot":7164,"cacak":7165,"cacap":7166,"dermaga":7167,"guho":7168,"galih":7169,"gambir":7170,"jemuran":7171,"jarum":7172,"jenguk":7173,"katil":7174,"kripik":7175,"kuwayan":7176,"kuwaghei":7177,"kukugh":7178,"kremujan":7179,"kremunyek":7180,"lanus":7181,"lemai":7182,"lasek":7183,"lassuw":7184,"lapik":7185,"lappek":7186,"layukh":7187,"lesung":7188,"laluan":7189,"pengantin":7190,"pengantar":7191,"repeng":7192,"sanggah":7193,"sanggai":7194,"suhu":7195,"tetuk":7196,"taulah":7197,"titis":7198,"titisan":7199,"tegeril":7200,"tegeggek":7201,"tanggem":7202,"tanggai":7203,"tingkat":7204,"tingkikh":7205,"wiso":7206,"yunei":7207,"Ġ30":7208,"ĠWayah":7209,"ĠWegh":7210,"Ġakhin":7211,"Ġakheng":7212,"punyeu":7213,"punyew":7214,"ngemighul":7215,"ngemucc":7216,"ngettarken":7217,"Ġkahas":7218,"Ġkaca":7219,"Ġkacang":7220,"dilakukan":7221,"Ġkehitaman":7222,"Ġkehadiran":7223,"Ġkesasar":7224,"Ġkesalahan":7225,"ruhak":7226,"rumpun":7227,"Ġbantal":7228,"Ġbanten":7229,"Ġmikir":7230,"Ġmarawis":7231,"Ġmarabah":7232,"Ġmeter":7233,"Ġmetei":7234,"Ġmanggah":7235,"Ġmanggis":7236,"ĠBerapa":7237,"ĠBerbei":7238,"Ġpipa":7239,"Ġpiyul":7240,"Ġpikiran":7241,"Ġpetai":7242,"Ġpetir":7243,"Ġdidnding":7244,"Ġdidalamnya":7245,"Ġdihadiri":7246,"Ġdihuni":7247,"Ġdisitu":7248,"Ġdisimak":7249,"Ġditabuh":7250,"Ġditabur":7251,"Ġditutup":7252,"Ġditutupi":7253,"Ġduo":7254,"Ġduit":7255,"Ġdelapan":7256,"Ġdelman":7257,"Ġterjatuh":7258,"Ġterjepit":7259,"Ġtaulan":7260,"Ġtembaga":7261,"Ġtembakau":7262,"Ġtemui":7263,"Ġtemurun":7264,"Ġtenggelan":7265,"Ġtenggelam":7266,"celana":7267,"tujuan":7268,"dawag":7269,"peyebutan":7270,"pegago":7271,"pegagan":7272,"Ġacaranya":7273,"Ġacarane":7274,"Ġayahnya":7275,"Ġlapar":7276,"Ġlappeu":7277,"Ġlungsi":7278,"Ġlungsin":7279,"Ġleko":7280,"Ġlekukan":7281,"Ġlembek":7282,"Ġlembaran":7283,"Ġseberai":7284,"Ġsebernya":7285,"Ġsepigho":7286,"Ġberisti":7287,"Ġberistirahat":7288,"Ġnundo":7289,"Ġnundung":7290,"Ġilmu":7291,"Ġilmeu":7292,"Ġsajian":7293,"Ġsajalah":7294,"pagar":7295,"paggilan":7296,"Ġmenarik":7297,"Ġmenaruh":7298,"uleman":7299,"Ġughun":7300,"Ġughghun":7301,"Ġjemeh":7302,"Ġjempol":7303,"Ġjago":7304,"Ġjaguk":7305,"Ġjumlahnya":7306,"Ġwash":7307,"Ġwithout":7308,"Ġgerigit":7309,"Ġgerobak":7310,"Ġgunung":7311,"Ġgunting":7312,"Ġgula":7313,"Ġgulosuluh":7314,"Ġgkhek":7315,"Ġgkhujuk":7316,"Ġmeminang":7317,"Ġmeminum":7318,"Ġterdekat":7319,"Ġterdengar":7320,"Ġterkecil":7321,"Ġterkejut":7322,"Ġriver":7323,"Ġrippah":7324,"Ġrinti":7325,"Ġrindu":7326,"Ġramban":7327,"Ġrambai":7328,"Ġkelakuan":7329,"Ġkelakuannya":7330,"Ġsingai":7331,"Ġsinggasana":7332,"nyesau":7333,"nyesako":7334,"Ġtuwau":7335,"Ġtuweh":7336,"ĠNgaleu":7337,"ĠNgebaseh":7338,"suguhan":7339,"pelessan":7340,"Ġpancingan":7341,"Ġlingkaran":7342,"Ġlingkungan":7343,"Ġliriknya":7344,"kecombrang":7345,"kecowa":7346,"kesal":7347,"kesappek":7348,"kecipung":7349,"kecipir":7350,"ĠSeminggu":7351,"ĠSeminggeu":7352,"Ġcalukkeu":7353,"Ġpembukaan":7354,"Ġnyelesaike":7355,"Ġnyelesaiko":7356,"Ġsebambang":7357,"Ġsebambangan":7358,"Ġpenurunan":7359,"penjerat":7360,"penjelasan":7361,"penetas":7362,"penetaghan":7363,"mendorong":7364,"mendengkur":7365,"Ġlebarnya":7366,"ĠMinggu":7367,"ĠMinggeu":7368,"selaput":7369,"Ġumbulan":7370,"gelegesan":7371,"gelegato":7372,"tumpukin":7373,"kemejel":7374,"kemejelan":7375,"Nyinyik":7376,"Nyinynyik":7377,"Ġfood":7378,"Ġforum":7379,"ngediyo":7380,"ngedigek":7381,"ngebuan":7382,"ngebuyu":7383,"Ġmemberikannya":7384,"Ġteyne":7385,"belatung":7386,"belatauan":7387,"Ġasalno":7388,"Ġsembahyang":7389,"Ġcekung":7390,"Ġcekkugh":7391,"Ġtarikannya":7392,"Ġtarikanno":7393,"kulaken":7394,"mengantarkan":7395,"Ġ100":7396,"Ġirisannya":7397,"Ġlangsung":7398,"Ġimbun":7399,"mingnget":7400,"Ġenggak":7401,"Ġbroklat":7402,"Ġsopan":7403,"Ġcomes":7404,"Ġfront":7405,"Kecoa":7406,"Appay":7407,"Asso":7408,"Angsa":7409,"Angkrang":7410,"Baning":7411,"Benatat":7412,"Busyet":7413,"Bajing":7414,"Betetteu":7415,"Basing":7416,"Besok":7417,"Badul":7418,"Banjur":7419,"Bagaimana":7420,"Baccik":7421,"Dedaghei":7422,"Emangnya":7423,"Eghal":7424,"Ghihei":7425,"Garengpung":7426,"Gudak":7427,"Gaghak":7428,"Gampang":7429,"Ghibung":7430,"Harei":7431,"Iyyo":7432,"Kijing":7433,"Kancil":7434,"Kerih":7435,"Kating":7436,"Kalajengking":7437,"Kenui":7438,"Kitik":7439,"Ketiran":7440,"Kuteu":7441,"Kabarno":7442,"Kesana":7443,"Kejebel":7444,"Kuyuk":7445,"Kodok":7446,"Keriang":7447,"Lemaweng":7448,"Langik":7449,"Lais":7450,"Lematek":7451,"Maaf":7452,"Monyet":7453,"Merpati":7454,"Maghing":7455,"Mettey":7456,"Mekkeh":7457,"Namokeu":7458,"Nikew":7459,"Nilem":7460,"Ngawil":7461,"Nuwone":7462,"Ngenalke":7463,"Okelah":7464,"Puskam":7465,"Pekonku":7466,"Panjer":7467,"Pateike":7468,"Remis":7469,"Rumahnya":7470,"Sepedah":7471,"Sriti":7472,"Semut":7473,"Singai":7474,"Sekarang":7475,"Sepidahne":7476,"Sebelah":7477,"Tupai":7478,"Tinuk":7479,"Talluy":7480,"Tengelan":7481,"Tunai":7482,"Tajur":7483,"Toman":7484,"Tabuan":7485,"Tekhima":7486,"Uret":7487,"Unggal":7488,"binjai":7489,"besilo":7490,"basung":7491,"biso":7492,"babak":7493,"beparas":7494,"cendai":7495,"cungih":7496,"cangkei":7497,"cengkremo":7498,"canduk":7499,"deddel":7500,"dendan":7501,"gatting":7502,"getah":7503,"gumek":7504,"girek":7505,"guduh":7506,"gujukan":7507,"gesei":7508,"gedah":7509,"gigut":7510,"gakhuk":7511,"guyun":7512,"gubik":7513,"geghalku":7514,"iyauan":7515,"jinjem":7516,"jajil":7517,"jirat":7518,"jembatan":7519,"jepano":7520,"jupput":7521,"jegkhum":7522,"kajang":7523,"kayuw":7524,"kentos":7525,"kuaro":7526,"kacakh":7527,"kelumbei":7528,"kotak":7529,"kakhai":7530,"keluarga":7531,"kegkhak":7532,"kegiatan":7533,"kÃ£amalang":7534,"linuy":7535,"lunding":7536,"lusuh":7537,"lulin":7538,"lokasi":7539,"lucis":7540,"malasan":7541,"mukeh":7542,"misel":7543,"magel":7544,"muwaghei":7545,"melirik":7546,"mewaghi":7547,"messey":7548,"melahirkan":7549,"medal":7550,"munggas":7551,"megkhiccep":7552,"nercuwet":7553,"nenggaw":7554,"nuket":7555,"nilai":7556,"nanjar":7557,"neriwangan":7558,"nasehat":7559,"pasaran":7560,"perjamuan":7561,"pitter":7562,"piles":7563,"pimpinan":7564,"rintik":7565,"rappek":7566,"ritto":7567,"riduw":7568,"rewel":7569,"ringget":7570,"resah":7571,"remugek":7572,"rencana":7573,"samber":7574,"settrunnas":7575,"sampah":7576,"srikaya":7577,"sungkai":7578,"sukaan":7579,"setotuho":7580,"tako":7581,"tajalan":7582,"tiluw":7583,"tehattek":7584,"tirai":7585,"tambagan":7586,"tebal":7587,"tombak":7588,"teghang":7589,"tekang":7590,"uage":7591,"vehicles":7592,"walid":7593,"wadah":7594,"waghian":7595,"zontal":7596,"Ġelastis":7597,"Ġurauan":7598,"Ġingkung":7599,"Ġedisi":7600,"Ġzalacca":7601,"pusiban":7602,"pukhung":7603,"pumandai":7604,"puppahan":7605,"ngakken":7606,"ngittar":7607,"ngekkuy":7608,"ngudek":7609,"nganggek":7610,"ngambo":7611,"ngeliyuh":7612,"ngelahhai":7613,"ngeghileng":7614,"ngedengor":7615,"ngeji":7616,"ngukugh":7617,"ngendet":7618,"nguccuy":7619,"inasikan":7620,"induknya":7621,"Ġkapal":7622,"Ġkikim":7623,"Ġkutilang":7624,"Ġkafan":7625,"Ġkagkhas":7626,"Ġklasik":7627,"dibagikan":7628,"sieger":7629,"sikhek":7630,"sigkhuk":7631,"sikop":7632,"Ġkeberangkatan":7633,"Ġketiga":7634,"Ġkepanjangan":7635,"Ġkekhja":7636,"Ġketerlaluan":7637,"Ġkegiatan":7638,"Ġkebakaran":7639,"Ġkepenyimbangan":7640,"Ġkepinding":7641,"Ġketidaksukaan":7642,"Ġkesultanan":7643,"Ġbakko":7644,"Ġberjemur":7645,"Ġbait":7646,"Ġbajuku":7647,"Ġbisul":7648,"Ġbenteng":7649,"Ġbolong":7650,"Ġbuta":7651,"Ġbonggolnya":7652,"Ġbantuan":7653,"Ġbengkak":7654,"Ġbseristirahat":7655,"Ġbabuy":7656,"Ġblambangan":7657,"Ġblog":7658,"Ġbapaknya":7659,"Ġblumbana":7660,"Ġmagrib":7661,"Ġmekbem":7662,"Ġmurai":7663,"Ġmangkok":7664,"Ġmelipat":7665,"Ġmantunya":7666,"Ġmettakh":7667,"Ġmother":7668,"Ġmisal":7669,"Ġmondolan":7670,"Ġmahhap":7671,"ĠLappung":7672,"ĠBerugo":7673,"Ġpass":7674,"Ġpauk":7675,"Ġpilangan":7676,"Ġpasiw":7677,"Ġpigha":7678,"Ġpistol":7679,"Ġpokoknya":7680,"Ġplastik":7681,"Ġpasti":7682,"Ġpahhau":7683,"Ġpeliharaan":7684,"Ġpsangannya":7685,"Ġpamakaiannya":7686,"Ġdipegang":7687,"Ġdiasinkan":7688,"Ġdiulek":7689,"Ġdiyakini":7690,"Ġdilingkarkan":7691,"Ġdimasukkan":7692,"Ġdidukung":7693,"Ġdisaksikan":7694,"Ġdiduduki":7695,"Ġdihargai":7696,"Ġdihormati":7697,"Ġdisajikan":7698,"Ġdicelup":7699,"Ġditujukan":7700,"Ġdisuguhkan":7701,"Ġdiibaratkan":7702,"Ġdudul":7703,"Ġdedak":7704,"bubungan":7705,"burotutuw":7706,"buwagkhei":7707,"Ġtukun":7708,"Ġtimbul":7709,"Ġtudung":7710,"Ġtanggung":7711,"Ġtongkat":7712,"Ġtadinya":7713,"Ġteduh":7714,"Ġtradisonal":7715,"Ġthief":7716,"Ġtelinga":7717,"Ġtheir":7718,"Ġtonight":7719,"liwaq":7720,"lipeto":7721,"Ġsulaman":7722,"Ġsholat":7723,"Ġsurian":7724,"Ġsandal":7725,"Ġschool":7726,"cekelung":7727,"cecanggih":7728,"tungkal":7729,"pesuruh":7730,"pepirin":7731,"Ġyunei":7732,"Ġadjektiva":7733,"Ġlajeu":7734,"Ġlagu":7735,"Ġlumpur":7736,"Ġlegit":7737,"Ġlabayan":7738,"Ġlewat":7739,"Ġlesung":7740,"Ġlado":7741,"Ġletter":7742,"Ġlaccung":7743,"Ġlancip":7744,"Ġlonjong":7745,"Ġsepanjang":7746,"Ġselikut":7747,"Ġsederhana":7748,"Ġsesajen":7749,"Ġbertukar":7750,"Ġberambai":7751,"Ġberongga":7752,"Ġberkenalan":7753,"Ġberbagai":7754,"Ġberantakan":7755,"Ġberlagak":7756,"Ġbergambar":7757,"Ġnowow":7758,"Ġnomor":7759,"Ġnadanya":7760,"Ġnyawo":7761,"Ġnigheu":7762,"Ġnyamukke":7763,"Ġirip":7764,"Ġmendatangi":7765,"Ġmenetap":7766,"Ġmenampilkan":7767,"Ġmenunggu":7768,"Ġhadiah":7769,"Ġhantaran":7770,"Ġhorizontal":7771,"Ġhealthy":7772,"Ġuccal":7773,"Ġjawab":7774,"Ġjadei":7775,"Ġjaraknya":7776,"Ġjenazah":7777,"Ġjodoh":7778,"Ġjemaah":7779,"Ġjerangau":7780,"Ġunyenne":7781,"Ġwajib":7782,"Ġgolok":7783,"Ġgirl":7784,"Ġgambar":7785,"Ġguwai":7786,"Ġgisai":7787,"Ġgendongan":7788,"Ġgulugh":7789,"Ġgulungan":7790,"Ġgandit":7791,"Ġgeghalmu":7792,"Ġgives":7793,"Ġmemandu":7794,"Ġmemeriahkan":7795,"Ġmemandangi":7796,"Ġinjected":7797,"Ġcabe":7798,"Ġcangkir":7799,"Ġcuaca":7800,"Ġcenderung":7801,"Ġciccam":7802,"Ġclothes":7803,"Ġcaught":7804,"Ġperabotan":7805,"Ġpersetujuan":7806,"Ġpernyataan":7807,"Ġpertanian":7808,"Ġperkataan":7809,"Ġperkampungan":7810,"Ġperlengkapan":7811,"Ġpermohonan":7812,"Ġmengejek":7813,"Ġmengurusi":7814,"Ġmengungkapkan":7815,"Ġmengakibatkan":7816,"Ġmenginformasikan":7817,"Ġbegawei":7818,"Ġbebagho":7819,"Ġbeserta":7820,"Ġbebekas":7821,"Ġbeautiful":7822,"Ġterigu":7823,"Ġterkunci":7824,"Ġterserang":7825,"Ġterhantuk":7826,"Ġterlampiaskan":7827,"Ġterkelupas":7828,"Ġtergolong":7829,"Ġtersangkut":7830,"Ġterpeleset":7831,"Ġtergores":7832,"bersembunyi":7833,"berbeda":7834,"bersendawa":7835,"Ġringgit":7836,"Ġresmi":7837,"Ġrambut":7838,"Ġromaku":7839,"Ġroboh":7840,"Ġranjau":7841,"Ġranting":7842,"Ġrontok":7843,"abigkh":7844,"Ġkelebihan":7845,"Ġkelelawar":7846,"mahkota":7847,"seangkenan":7848,"sesuyo":7849,"sepuket":7850,"sedarung":7851,"sebajawan":7852,"seprah":7853,"nyungget":7854,"nyituh":7855,"nyekatul":7856,"nyerupo":7857,"nyiccak":7858,"nyelikap":7859,"nyÃ£amet":7860,"Ġdipenyek":7861,"tanjugkh":7862,"Ġdigigik":7863,"Ġagendanya":7864,"Ġpuadai":7865,"Ġpuade":7866,"Ġpusaka":7867,"Ġngeghaso":7868,"Ġngisik":7869,"Ġngigham":7870,"Ġngeyel":7871,"Ġngediyo":7872,"Ġngelepaske":7873,"Ġngelajewke":7874,"ĠNgemik":7875,"persendian":7876,"permintaan":7877,"gheruhung":7878,"Ġbilimbing":7879,"Ġkerucut":7880,"Ġkerincingan":7881,"Ġpecceh":7882,"Ġlampungnese":7883,"Ġdilewati":7884,"Ġdilettakan":7885,"Ġmerapatkan":7886,"Ġmerendamkan":7887,"peletokan":7888,"Dibelakang":7889,"Ġmenyedot":7890,"Ġmenyucikan":7891,"Ġmenyisipkan":7892,"Ġmenyelenggarakan":7893,"Ġmenyesatkan":7894,"Ġgelaghmu":7895,"Ġmelengkung":7896,"Ġmelanjutkan":7897,"Ġlipatannya":7898,"menggelengkan":7899,"mengurut":7900,"menggerakkan":7901,"mengedipkan":7902,"menghamparkan":7903,"mengonfirmasi":7904,"mengumpulkan":7905,"kejamegkh":7906,"keputusan":7907,"memasukkan":7908,"memberitahukan":7909,"Ġpengigo":7910,"Ġpengangkonan":7911,"ĠSeribu":7912,"ĠSeunyenno":7913,"Ġargued":7914,"Ġarteino":7915,"kugkhai":7916,"Ġkemaluan":7917,"Ġkemasyarakatan":7918,"pengesaian":7919,"pengejengan":7920,"Ġdiberangkatkan":7921,"Ġghenglayo":7922,"Ġdisembuhkan":7923,"Ġpelurunya":7924,"ĠKhedik":7925,"ĠKemarin":7926,"penentuan":7927,"penandaan":7928,"pendawakan":7929,"Ġdikombinasikan":7930,"Ġdikrecek":7931,"Ġdikonsumsi":7932,"ciccagkh":7933,"menitipkan":7934,"mendoakan":7935,"menunjukkan":7936,"Ġsuguhan":7937,"ĠTebuan":7938,"Ġselanjutnya":7939,"Ġseluruh":7940,"selendar":7941,"terbalik":7942,"tercengang":7943,"kericih":7944,"Ġmembedakan":7945,"Ġmembasahi":7946,"sesegokan":7947,"pembubaran":7948,"pemuluwan":7949,"ĠGeruda":7950,"gkhedaian":7951,"sovenir":7952,"manuskrip":7953,"Ġdinasehati":7954,"Ġmenghubungkan":7955,"semegkhei":7956,"semeredan":7957,"ngeccek":7958,"ngerekkegei":7959,"ngericeuw":7960,"Ġditelurkan":7961,"goyangkan":7962,"ĠJagobayo":7963,"Ġpenyungkitan":7964,"Ġmempersaudarakan":7965,"Ketuwir":7966,"sakkakjalo":7967,"bebbeggen":7968,"Ġpembingkai":7969,"Ġpembicaraan":7970,"Ġcelaka":7971,"negagkhah":7972,"Ġdipersiapkan":7973,"Ġdipersyaratkan":7974,"Ġdipertengahan":7975,"membicarakan":7976,"ngegudigh":7977,"ngebekhus":7978,"Ġkecoklatan":7979,"Ġsahibulhajat":7980,"Ġsunanatn":7981,"kedekkik":7982,"mencubit":7983,"ngelemunek":7984,"Ġkomunikasi":7985,"tegerileh":7986,"ngemucco":7987,"Ġmarabahaya":7988,"ĠNgebasehke":7989,"Sepedahnya":7990,"..\",":7991,"Ar":7992,"Deep":7993,"Mac":7994,"fer":7995,"fici":7996,"gence":7997,"ogi":7998,"thon":7999,"war":8000,"wor":8001,"ython":8002,"zat":8003,"Ġ?\",":8004,"Ġ).\",":8005,"ligence":8006,"ces":8007,"Ġsequ":8008,"Ġnet":8009,"pace":8010,"eks":8011,"ural":8012,"Ġintel":8013,"Ġinfer":8014,"ologi":8015,"tifici":8016,"manual":8017,"\\\".\",":8018,"Large":8019,"Ġmachine":8020,"..!!\"}":8021,"Ġlanguage":8022,"Ġused":8023,"Artifici":8024,"Machine":8025,"ficient":8026,"ware":8027,"work":8028,"zation":8029,"Ġsequence":8030,"Ġnetwork":8031,"Ġintelligence":8032,"Ġinference":8033,"Artificial":8034}